unsigned char tflitemodels[] = {
  0x20, 0x00, 0x00, 0x00, 0x54, 0x46, 0x4c, 0x33, 0x00, 0x00, 0x00, 0x00,
  0x14, 0x00, 0x20, 0x00, 0x1c, 0x00, 0x18, 0x00, 0x14, 0x00, 0x10, 0x00,
  0x0c, 0x00, 0x00, 0x00, 0x08, 0x00, 0x04, 0x00, 0x14, 0x00, 0x00, 0x00,
  0x1c, 0x00, 0x00, 0x00, 0x1c, 0x00, 0x00, 0x00, 0x74, 0x00, 0x00, 0x00,
  0x40, 0x1c, 0x00, 0x00, 0x50, 0x1c, 0x00, 0x00, 0xac, 0x39, 0x00, 0x00,
  0x03, 0x00, 0x00, 0x00, 0x00, 0x00, 0x00, 0x00, 0x02, 0x00, 0x00, 0x00,
  0x34, 0x00, 0x00, 0x00, 0x04, 0x00, 0x00, 0x00, 0xdc, 0xff, 0xff, 0xff,
  0x32, 0x00, 0x00, 0x00, 0x04, 0x00, 0x00, 0x00, 0x13, 0x00, 0x00, 0x00,
  0x43, 0x4f, 0x4e, 0x56, 0x45, 0x52, 0x53, 0x49, 0x4f, 0x4e, 0x5f, 0x4d,
  0x45, 0x54, 0x41, 0x44, 0x41, 0x54, 0x41, 0x00, 0x08, 0x00, 0x0c, 0x00,
  0x08, 0x00, 0x04, 0x00, 0x08, 0x00, 0x00, 0x00, 0x31, 0x00, 0x00, 0x00,
  0x04, 0x00, 0x00, 0x00, 0x13, 0x00, 0x00, 0x00, 0x6d, 0x69, 0x6e, 0x5f,
  0x72, 0x75, 0x6e, 0x74, 0x69, 0x6d, 0x65, 0x5f, 0x76, 0x65, 0x72, 0x73,
  0x69, 0x6f, 0x6e, 0x00, 0x33, 0x00, 0x00, 0x00, 0xc8, 0x1b, 0x00, 0x00,
  0xc0, 0x1b, 0x00, 0x00, 0x7c, 0x1b, 0x00, 0x00, 0x68, 0x1b, 0x00, 0x00,
  0x54, 0x1b, 0x00, 0x00, 0x3c, 0x1b, 0x00, 0x00, 0x28, 0x1b, 0x00, 0x00,
  0x08, 0x1b, 0x00, 0x00, 0x78, 0x14, 0x00, 0x00, 0x48, 0x14, 0x00, 0x00,
  0xb8, 0x13, 0x00, 0x00, 0x28, 0x13, 0x00, 0x00, 0x98, 0x12, 0x00, 0x00,
  0x08, 0x12, 0x00, 0x00, 0xc4, 0x11, 0x00, 0x00, 0xb4, 0x0d, 0x00, 0x00,
  0xa4, 0x09, 0x00, 0x00, 0x94, 0x05, 0x00, 0x00, 0x84, 0x01, 0x00, 0x00,
  0x7c, 0x01, 0x00, 0x00, 0x74, 0x01, 0x00, 0x00, 0x6c, 0x01, 0x00, 0x00,
  0x64, 0x01, 0x00, 0x00, 0x5c, 0x01, 0x00, 0x00, 0x54, 0x01, 0x00, 0x00,
  0x4c, 0x01, 0x00, 0x00, 0x44, 0x01, 0x00, 0x00, 0x3c, 0x01, 0x00, 0x00,
  0x34, 0x01, 0x00, 0x00, 0x2c, 0x01, 0x00, 0x00, 0x24, 0x01, 0x00, 0x00,
  0x1c, 0x01, 0x00, 0x00, 0x14, 0x01, 0x00, 0x00, 0x0c, 0x01, 0x00, 0x00,
  0x04, 0x01, 0x00, 0x00, 0xfc, 0x00, 0x00, 0x00, 0xf4, 0x00, 0x00, 0x00,
  0xec, 0x00, 0x00, 0x00, 0xe4, 0x00, 0x00, 0x00, 0xdc, 0x00, 0x00, 0x00,
  0xd4, 0x00, 0x00, 0x00, 0xcc, 0x00, 0x00, 0x00, 0xc4, 0x00, 0x00, 0x00,
  0xbc, 0x00, 0x00, 0x00, 0xb4, 0x00, 0x00, 0x00, 0xac, 0x00, 0x00, 0x00,
  0xa4, 0x00, 0x00, 0x00, 0x9c, 0x00, 0x00, 0x00, 0x94, 0x00, 0x00, 0x00,
  0x74, 0x00, 0x00, 0x00, 0x04, 0x00, 0x00, 0x00, 0xfe, 0xe1, 0xff, 0xff,
  0x04, 0x00, 0x00, 0x00, 0x60, 0x00, 0x00, 0x00, 0x0c, 0x00, 0x00, 0x00,
  0x08, 0x00, 0x0e, 0x00, 0x08, 0x00, 0x04, 0x00, 0x08, 0x00, 0x00, 0x00,
  0x10, 0x00, 0x00, 0x00, 0x28, 0x00, 0x00, 0x00, 0x00, 0x00, 0x06, 0x00,
  0x08, 0x00, 0x04, 0x00, 0x06, 0x00, 0x00, 0x00, 0x04, 0x00, 0x00, 0x00,
  0x01, 0x00, 0x00, 0x00, 0xea, 0x03, 0x00, 0x00, 0x0c, 0x00, 0x18, 0x00,
  0x14, 0x00, 0x10, 0x00, 0x0c, 0x00, 0x04, 0x00, 0x0c, 0x00, 0x00, 0x00,
  0xc2, 0x23, 0xdb, 0xbf, 0x66, 0x86, 0x7b, 0xd5, 0x03, 0x00, 0x00, 0x00,
  0x02, 0x00, 0x00, 0x00, 0x04, 0x00, 0x00, 0x00, 0x06, 0x00, 0x00, 0x00,
  0x32, 0x2e, 0x31, 0x39, 0x2e, 0x30, 0x00, 0x00, 0x6a, 0xe2, 0xff, 0xff,
  0x04, 0x00, 0x00, 0x00, 0x10, 0x00, 0x00, 0x00, 0x32, 0x2e, 0x31, 0x37,
  0x2e, 0x30, 0x00, 0x00, 0x00, 0x00, 0x00, 0x00, 0x00, 0x00, 0x00, 0x00,
  0xa8, 0xc7, 0xff, 0xff, 0xac, 0xc7, 0xff, 0xff, 0xb0, 0xc7, 0xff, 0xff,
  0xb4, 0xc7, 0xff, 0xff, 0xb8, 0xc7, 0xff, 0xff, 0xbc, 0xc7, 0xff, 0xff,
  0xc0, 0xc7, 0xff, 0xff, 0xc4, 0xc7, 0xff, 0xff, 0xc8, 0xc7, 0xff, 0xff,
  0xcc, 0xc7, 0xff, 0xff, 0xd0, 0xc7, 0xff, 0xff, 0xd4, 0xc7, 0xff, 0xff,
  0xd8, 0xc7, 0xff, 0xff, 0xdc, 0xc7, 0xff, 0xff, 0xe0, 0xc7, 0xff, 0xff,
  0xe4, 0xc7, 0xff, 0xff, 0xe8, 0xc7, 0xff, 0xff, 0xec, 0xc7, 0xff, 0xff,
  0xf0, 0xc7, 0xff, 0xff, 0xf4, 0xc7, 0xff, 0xff, 0xf8, 0xc7, 0xff, 0xff,
  0xfc, 0xc7, 0xff, 0xff, 0x00, 0xc8, 0xff, 0xff, 0x04, 0xc8, 0xff, 0xff,
  0x08, 0xc8, 0xff, 0xff, 0x0c, 0xc8, 0xff, 0xff, 0x10, 0xc8, 0xff, 0xff,
  0x14, 0xc8, 0xff, 0xff, 0x18, 0xc8, 0xff, 0xff, 0x1c, 0xc8, 0xff, 0xff,
  0xfe, 0xe2, 0xff, 0xff, 0x04, 0x00, 0x00, 0x00, 0x00, 0x04, 0x00, 0x00,
  0x45, 0xb8, 0x08, 0x28, 0xc5, 0x6c, 0xa9, 0x9b, 0x51, 0x0e, 0xbf, 0x81,
  0xaa, 0xa5, 0x07, 0x76, 0xd6, 0x32, 0xa0, 0x75, 0x0d, 0xfa, 0xf3, 0x9d,
  0x69, 0x29, 0x05, 0x52, 0x26, 0x0c, 0xfb, 0x41, 0xbb, 0xad, 0xf2, 0x4c,
  0x32, 0x4a, 0x81, 0x30, 0xe3, 0x4d, 0xd8, 0x00, 0x43, 0x21, 0x74, 0xde,
  0x2b, 0xa8, 0xe1, 0x17, 0x7d, 0xfd, 0xbe, 0xbe, 0x59, 0x56, 0x14, 0xe0,
  0xe0, 0xc4, 0x5e, 0x27, 0xbd, 0x7d, 0xec, 0xd1, 0x18, 0x10, 0x01, 0x43,
  0x70, 0xd4, 0x6c, 0x5d, 0xad, 0x50, 0x50, 0x5f, 0xbc, 0xea, 0x46, 0xc6,
  0xda, 0x29, 0x68, 0xd8, 0x29, 0x42, 0x93, 0x7f, 0xda, 0x32, 0x53, 0x5f,
  0x43, 0x71, 0x08, 0x81, 0x05, 0x61, 0x47, 0xeb, 0xd6, 0x6b, 0x54, 0x68,
  0x66, 0xec, 0x70, 0xb4, 0xc4, 0x52, 0x1a, 0x1e, 0x4a, 0x52, 0x87, 0xd3,
  0xa1, 0x28, 0x13, 0x11, 0x7a, 0x7f, 0x10, 0x97, 0x28, 0x09, 0xfb, 0x9a,
  0x71, 0xbc, 0x05, 0xc4, 0x8e, 0x98, 0x71, 0xd7, 0x09, 0x54, 0x0e, 0x7a,
  0x1c, 0x65, 0x3f, 0xb4, 0x54, 0xe5, 0x55, 0x33, 0x81, 0x07, 0xc3, 0x09,
  0xf9, 0x65, 0xec, 0x5b, 0x36, 0xfe, 0x70, 0x2d, 0x5f, 0x78, 0x34, 0xb0,
  0x71, 0x20, 0xfa, 0x02, 0x68, 0x70, 0xd1, 0xe2, 0xd0, 0xdf, 0x3e, 0x9a,
  0x2e, 0x3e, 0x4d, 0x52, 0xe1, 0xa0, 0x67, 0x21, 0x7f, 0x21, 0x37, 0x35,
  0x0a, 0xe6, 0x99, 0x53, 0x70, 0xf8, 0x61, 0x20, 0xb5, 0x9d, 0xcc, 0xb2,
  0x94, 0x05, 0x5d, 0x7d, 0x26, 0x2c, 0x30, 0xd1, 0x7f, 0x18, 0x1d, 0xb8,
  0xa6, 0xba, 0x56, 0x1b, 0x4c, 0x53, 0x79, 0x46, 0x1f, 0x57, 0x51, 0xfd,
  0xff, 0x36, 0x15, 0x59, 0x22, 0x98, 0xb1, 0xb1, 0x3f, 0xf8, 0x19, 0x09,
  0xff, 0x43, 0x0c, 0xb2, 0x11, 0x34, 0xd3, 0x47, 0x7f, 0xac, 0x9f, 0xde,
  0x53, 0x5e, 0xf8, 0xc5, 0x57, 0x63, 0x37, 0xbf, 0x4f, 0x81, 0x28, 0x32,
  0xf0, 0xfe, 0x3f, 0x24, 0x6d, 0x4f, 0x9f, 0x9a, 0x4a, 0x5f, 0xd4, 0xa1,
  0xa2, 0x62, 0xc6, 0xfe, 0x49, 0x1d, 0xa7, 0x36, 0xab, 0xd7, 0x40, 0xae,
  0xb4, 0xcf, 0xc1, 0x95, 0xc0, 0x3e, 0x19, 0x82, 0x17, 0xe6, 0x19, 0x23,
  0x81, 0xa3, 0x48, 0x4a, 0xa0, 0xce, 0x77, 0xfe, 0xe9, 0x15, 0x43, 0x66,
  0x4e, 0x84, 0x1a, 0x3b, 0xf0, 0x18, 0xcf, 0x2c, 0xf2, 0xda, 0xbd, 0x01,
  0xe9, 0x69, 0x6c, 0x7f, 0x65, 0x0c, 0xae, 0x00, 0x9b, 0xdb, 0x51, 0xe3,
  0x05, 0xf9, 0xd5, 0xaf, 0xb3, 0x35, 0x34, 0xe5, 0xbb, 0xc2, 0x35, 0xae,
  0x43, 0xd6, 0x35, 0x22, 0x43, 0x3b, 0x04, 0x28, 0x50, 0x11, 0x4a, 0x20,
  0x26, 0xd9, 0xd4, 0x81, 0x7e, 0xeb, 0x45, 0x17, 0xb2, 0x5c, 0x77, 0x50,
  0x27, 0xba, 0x6a, 0x17, 0xab, 0xe2, 0x0a, 0x21, 0xca, 0x35, 0xbf, 0xc2,
  0x13, 0x04, 0x7f, 0xf7, 0x24, 0x30, 0xa3, 0xd1, 0xdb, 0xa1, 0x1a, 0xf5,
  0x99, 0x4c, 0xdf, 0x12, 0xf0, 0x49, 0xca, 0x27, 0x31, 0xf8, 0xe9, 0xab,
  0x56, 0xd3, 0xb4, 0xd1, 0xd5, 0xc1, 0xa2, 0x1f, 0x9b, 0x64, 0x0e, 0xe9,
  0xcb, 0x10, 0x41, 0x6f, 0xf3, 0xc6, 0xc4, 0x41, 0x53, 0x81, 0x31, 0x1f,
  0xd5, 0x0d, 0xb4, 0x4a, 0x31, 0xaa, 0xdb, 0x56, 0xc4, 0xf6, 0xb9, 0x52,
  0x3e, 0x1f, 0xa1, 0xeb, 0x0d, 0x9d, 0x2b, 0xce, 0xfd, 0x6a, 0x49, 0x32,
  0x83, 0xf4, 0x1c, 0x70, 0xf1, 0x50, 0x4c, 0x64, 0xb1, 0x99, 0xac, 0xad,
  0xf0, 0xdd, 0x04, 0x36, 0xf7, 0x20, 0x7f, 0xfc, 0x18, 0x16, 0x0b, 0x35,
  0xf0, 0xbd, 0xd1, 0xba, 0x6b, 0x12, 0x45, 0xde, 0xf4, 0x05, 0x35, 0x5b,
  0x74, 0x7f, 0xab, 0x9c, 0x41, 0xb4, 0x53, 0x1f, 0x2c, 0x22, 0x49, 0xd2,
  0xd5, 0xa0, 0x04, 0xab, 0xdd, 0xf6, 0x56, 0xe6, 0xcf, 0x5b, 0xdb, 0x3e,
  0xdb, 0x73, 0xf0, 0x3f, 0xfc, 0xff, 0xd7, 0x38, 0x7f, 0x3d, 0x65, 0x46,
  0x6a, 0xa0, 0x3a, 0x88, 0x8f, 0x44, 0x0f, 0x0b, 0x9a, 0x75, 0x4f, 0xbe,
  0x48, 0x70, 0x0d, 0x75, 0x32, 0xb1, 0xe5, 0xba, 0xea, 0x6b, 0xcf, 0x25,
  0xc2, 0x15, 0x39, 0x55, 0xf2, 0x20, 0x0e, 0xfa, 0xf9, 0x32, 0xf7, 0x23,
  0xe6, 0xaa, 0x3a, 0x58, 0xb8, 0xd7, 0x7f, 0x92, 0x14, 0x01, 0xc4, 0x1f,
  0x84, 0x0c, 0xb8, 0x46, 0x58, 0xc5, 0xc4, 0x9a, 0xd2, 0x81, 0xcd, 0x60,
  0xda, 0xd3, 0xc8, 0x91, 0xce, 0x95, 0xc0, 0xb0, 0x43, 0x06, 0x05, 0xb0,
  0xdd, 0x1c, 0xdf, 0x02, 0x18, 0x3f, 0x3c, 0xca, 0x09, 0x04, 0x7e, 0x86,
  0x7d, 0xce, 0x18, 0x97, 0xee, 0x33, 0xaf, 0x7f, 0x53, 0x8f, 0xf4, 0x1b,
  0x77, 0x39, 0x4a, 0xfc, 0x66, 0xcb, 0x95, 0x49, 0xb2, 0xe3, 0x09, 0x14,
  0xb5, 0xc0, 0x7c, 0xfe, 0xe3, 0x78, 0xb4, 0x5a, 0xb2, 0x96, 0x55, 0x51,
  0x36, 0x4e, 0x99, 0x23, 0x63, 0xd9, 0x8d, 0x8c, 0x2a, 0x93, 0x81, 0xec,
  0x86, 0x42, 0x71, 0x05, 0xe1, 0x0b, 0xd6, 0x71, 0x34, 0xfe, 0xf2, 0x29,
  0x81, 0xd9, 0xb8, 0xc7, 0xca, 0x30, 0xbb, 0xbf, 0xe3, 0x49, 0x1b, 0x72,
  0x1b, 0x16, 0xd3, 0x3d, 0xb7, 0xb0, 0xe2, 0x06, 0x41, 0x5f, 0xd5, 0xfc,
  0xb1, 0x7c, 0xe5, 0xbe, 0x22, 0x50, 0xf8, 0xba, 0x26, 0xa8, 0x13, 0x3d,
  0x76, 0x5f, 0xed, 0x31, 0xb5, 0x8d, 0x30, 0xe5, 0x0e, 0x33, 0x21, 0x36,
  0xc7, 0xc6, 0x67, 0x20, 0xdf, 0x2e, 0x03, 0xf5, 0x9b, 0x0c, 0x4a, 0xbd,
  0xf6, 0x5b, 0xee, 0x7f, 0x45, 0xf1, 0x6b, 0x6d, 0xa6, 0x79, 0xc3, 0x0c,
  0xb5, 0x2a, 0x5f, 0xb4, 0xe2, 0x2b, 0x3e, 0x70, 0x8c, 0x2f, 0x88, 0x81,
  0xdf, 0x8e, 0xed, 0x5a, 0xd0, 0x4e, 0x5f, 0xa9, 0x4b, 0x0d, 0x97, 0x99,
  0xc9, 0xc8, 0x67, 0xdd, 0x7f, 0x5c, 0xd2, 0x7e, 0x27, 0x27, 0xc7, 0xcf,
  0x0f, 0xf0, 0xb6, 0x3a, 0x9e, 0xe3, 0x3f, 0x5e, 0xf9, 0x5a, 0x32, 0xfc,
  0x14, 0xe5, 0x4a, 0x37, 0xed, 0x2f, 0x4c, 0xd4, 0xbf, 0x75, 0xc4, 0x3c,
  0xed, 0xc9, 0xa8, 0x2d, 0xf9, 0x68, 0xcb, 0x7c, 0xff, 0x17, 0x28, 0x7f,
  0xd2, 0x1e, 0xfe, 0xa0, 0x6a, 0x2a, 0x35, 0x8c, 0x34, 0x12, 0x51, 0xfa,
  0xed, 0x7e, 0x18, 0xef, 0x09, 0x46, 0xea, 0xd8, 0x26, 0x7f, 0x19, 0xdc,
  0x6f, 0x3c, 0xb7, 0x15, 0x63, 0x2c, 0xdf, 0x1e, 0xa1, 0x2b, 0xfb, 0x77,
  0x23, 0x65, 0xda, 0x15, 0x52, 0x08, 0x41, 0x2a, 0x25, 0x09, 0x2e, 0x95,
  0x67, 0x78, 0x7b, 0x6f, 0x8d, 0xcd, 0xb2, 0x06, 0xc9, 0x73, 0x07, 0x0f,
  0x18, 0xd3, 0x64, 0x60, 0x1d, 0x98, 0xf1, 0x70, 0xe0, 0x53, 0x03, 0xcd,
  0x7f, 0xf2, 0xd7, 0x68, 0xb8, 0x55, 0x83, 0x6b, 0x5e, 0xaa, 0x48, 0x2e,
  0x8e, 0xf9, 0xeb, 0xe4, 0xab, 0xfe, 0xfa, 0xa2, 0x5f, 0x59, 0x0b, 0xc5,
  0xe1, 0x1e, 0x1e, 0x62, 0xc7, 0xd6, 0xfd, 0x0d, 0xc8, 0x89, 0xe7, 0x7f,
  0x15, 0xa9, 0x57, 0x26, 0x71, 0xaf, 0x4a, 0xfc, 0x13, 0x39, 0x05, 0xc7,
  0x59, 0x2b, 0x17, 0xb8, 0x56, 0x05, 0xe9, 0xea, 0xbd, 0xb7, 0x69, 0x7f,
  0x07, 0x0e, 0xbb, 0x5b, 0xee, 0xd7, 0x3d, 0xac, 0x7f, 0xce, 0xf8, 0xa2,
  0xb8, 0xc9, 0xfc, 0xe6, 0x66, 0x71, 0x2a, 0x4c, 0x62, 0xee, 0x06, 0xe2,
  0x81, 0x7f, 0x03, 0xa9, 0xa8, 0x99, 0x6c, 0x5f, 0xd1, 0x42, 0xca, 0x96,
  0x2b, 0xff, 0xed, 0xfa, 0xd6, 0x5b, 0x55, 0x3f, 0x47, 0xee, 0x5b, 0x54,
  0xd2, 0xc6, 0xf1, 0x7f, 0xa5, 0xcb, 0x5e, 0x25, 0x37, 0xe1, 0x77, 0xfd,
  0x3b, 0x9e, 0xc4, 0xcb, 0xb0, 0xa7, 0x2d, 0x33, 0xb2, 0xb8, 0x12, 0x55,
  0x31, 0x35, 0xc6, 0xef, 0x0a, 0xe7, 0xff, 0xff, 0x04, 0x00, 0x00, 0x00,
  0x00, 0x04, 0x00, 0x00, 0x8f, 0x57, 0x31, 0xdb, 0xcc, 0xee, 0x6b, 0x7f,
  0x0f, 0xfb, 0x11, 0x11, 0xcb, 0xa4, 0xb0, 0x71, 0x4f, 0x12, 0x30, 0xca,
  0xd4, 0x22, 0x1f, 0xf7, 0x64, 0x3e, 0xc7, 0x91, 0x40, 0xc4, 0x2d, 0xa7,
  0x36, 0x59, 0x88, 0x23, 0x04, 0xaa, 0xac, 0xc2, 0x99, 0x56, 0xd1, 0x67,
  0x39, 0xe3, 0x4c, 0x81, 0xd1, 0x14, 0x94, 0x42, 0x43, 0xb8, 0x1d, 0x3c,
  0x23, 0x2e, 0xc7, 0x73, 0x24, 0x52, 0xce, 0xd9, 0xe9, 0x53, 0x1f, 0x9a,
  0x05, 0x8e, 0xc2, 0xfa, 0x15, 0x2e, 0x32, 0x43, 0xaa, 0xd0, 0xb8, 0x7d,
  0x1b, 0xcd, 0xe2, 0xbb, 0xdc, 0x4f, 0x44, 0x13, 0xeb, 0xc6, 0x7f, 0xd5,
  0x0e, 0x2d, 0xd6, 0x4d, 0x60, 0x09, 0x4f, 0xd2, 0xe0, 0xd3, 0x37, 0x4c,
  0x87, 0xad, 0x4e, 0x03, 0xdd, 0x1b, 0x09, 0x25, 0x9f, 0x37, 0xf1, 0xb7,
  0x8c, 0xb8, 0xde, 0xba, 0x08, 0x81, 0x25, 0xe5, 0xcb, 0x22, 0xe5, 0x63,
  0x81, 0x0d, 0x46, 0x8d, 0x31, 0xc4, 0x48, 0x83, 0xf3, 0xb2, 0x18, 0x06,
  0x87, 0xa2, 0x2f, 0x1c, 0xc8, 0x75, 0x44, 0x82, 0x79, 0x52, 0x5d, 0xcb,
  0xcc, 0x2d, 0xf4, 0x3d, 0xde, 0xde, 0xd3, 0x25, 0xdb, 0xc8, 0x46, 0xa9,
  0xd5, 0x8c, 0x64, 0x37, 0x38, 0x2b, 0x43, 0x54, 0x00, 0x39, 0x89, 0xba,
  0xce, 0x81, 0x45, 0x2d, 0x39, 0xdc, 0x05, 0x0a, 0x56, 0x60, 0x1d, 0x11,
  0x67, 0x98, 0x4c, 0xbc, 0xe1, 0x1f, 0x1c, 0x49, 0xd3, 0xfc, 0x4b, 0x0e,
  0x3c, 0x9e, 0x56, 0x3d, 0xdd, 0x94, 0xc7, 0x4a, 0x21, 0x4f, 0x22, 0x78,
  0xc8, 0xdb, 0x35, 0x1b, 0x53, 0x62, 0xf9, 0x17, 0xc5, 0x9a, 0xa2, 0x7f,
  0xd0, 0x5a, 0x2a, 0xe4, 0xdf, 0x05, 0x76, 0x97, 0x81, 0x0e, 0xe8, 0x6a,
  0xfa, 0x2a, 0x61, 0xd2, 0x9f, 0x7b, 0xc1, 0x26, 0xe1, 0xa4, 0x38, 0x01,
  0x02, 0xca, 0xa6, 0xb0, 0x86, 0x93, 0x46, 0xfd, 0x5e, 0x97, 0xed, 0x5c,
  0x9b, 0xa4, 0xbb, 0xbc, 0x9c, 0x26, 0xbf, 0x16, 0x6e, 0xaf, 0xac, 0xb1,
  0x81, 0xb8, 0x0d, 0x33, 0x10, 0x45, 0x08, 0x6f, 0x9a, 0x9a, 0x27, 0x5e,
  0xed, 0x29, 0xca, 0x01, 0xb4, 0xda, 0x16, 0xef, 0x51, 0xad, 0x21, 0xce,
  0x26, 0xf0, 0x32, 0x5d, 0xd9, 0x3a, 0xe9, 0x38, 0x51, 0xc5, 0x19, 0xcc,
  0x38, 0x7f, 0x54, 0xe5, 0x59, 0x4f, 0x0d, 0x5d, 0xc6, 0x0e, 0x50, 0x46,
  0xd8, 0xa2, 0x37, 0xcd, 0x0b, 0xbc, 0xfe, 0xf8, 0x29, 0x3c, 0xcd, 0xa6,
  0x71, 0x94, 0x8d, 0x1f, 0xf4, 0x90, 0x7f, 0xae, 0x55, 0x83, 0x05, 0xd5,
  0x90, 0x0c, 0xdc, 0xc3, 0xdc, 0x2d, 0xd6, 0xfd, 0x33, 0xfc, 0x32, 0x56,
  0x39, 0x4d, 0x52, 0x20, 0xf6, 0x17, 0x36, 0x54, 0x1c, 0x7e, 0xdc, 0xfc,
  0x2f, 0x8e, 0xf3, 0x7f, 0x2a, 0xf9, 0xc2, 0x1a, 0xe8, 0xd3, 0x49, 0x23,
  0x43, 0x16, 0x4b, 0xeb, 0xdc, 0x94, 0xa9, 0xf6, 0xea, 0x24, 0xf5, 0xd3,
  0x1f, 0x12, 0x2e, 0x17, 0xa3, 0xd0, 0x03, 0x23, 0x05, 0xd0, 0x7f, 0x00,
  0x4d, 0x64, 0x1b, 0xdc, 0xfe, 0x64, 0x18, 0x4a, 0xf3, 0x8a, 0x0b, 0x71,
  0x57, 0x15, 0xa8, 0x86, 0x45, 0x4d, 0x6a, 0x81, 0x5f, 0xab, 0x94, 0x84,
  0x47, 0xa7, 0x38, 0x2f, 0x71, 0xd3, 0x0f, 0xf7, 0x00, 0x3b, 0x9a, 0x5d,
  0xd4, 0x17, 0xc0, 0x51, 0x04, 0x23, 0xa3, 0x1d, 0x1d, 0x55, 0x43, 0x8e,
  0x4a, 0xe3, 0xee, 0x25, 0x44, 0xb5, 0xa4, 0x0d, 0x6e, 0x81, 0x38, 0x10,
  0x89, 0xfa, 0xc5, 0x34, 0x3a, 0x1b, 0x0d, 0xe1, 0x91, 0x9d, 0xe8, 0x77,
  0x01, 0xdf, 0x2e, 0xa3, 0xbc, 0x0c, 0x47, 0xad, 0xba, 0xd7, 0x34, 0x75,
  0x46, 0xe3, 0x1b, 0x58, 0x41, 0xc3, 0xe6, 0x47, 0x81, 0xc0, 0xb3, 0x09,
  0xfb, 0xb3, 0xcb, 0x35, 0x69, 0x31, 0x27, 0x25, 0x6f, 0x1b, 0x0c, 0x41,
  0x7b, 0x6b, 0x62, 0x74, 0xa2, 0xcb, 0xd9, 0x26, 0xb3, 0x57, 0x81, 0x5b,
  0x60, 0x47, 0xab, 0x93, 0x5b, 0xcb, 0x07, 0xa0, 0x4b, 0x27, 0x84, 0xba,
  0x32, 0x5a, 0x51, 0xea, 0xb2, 0xd7, 0xee, 0xd3, 0xe1, 0xbb, 0x1a, 0xb9,
  0xe7, 0xfd, 0xd7, 0x0b, 0xff, 0x43, 0x93, 0x29, 0xe4, 0xd1, 0xfe, 0x85,
  0xa5, 0x2c, 0xe7, 0xf0, 0x07, 0xe6, 0x81, 0xcf, 0xaa, 0x9f, 0xe3, 0xb1,
  0xcc, 0xac, 0xe1, 0xf0, 0xde, 0xe9, 0x3f, 0x26, 0xe7, 0x74, 0x01, 0x51,
  0xec, 0xee, 0xd5, 0x7f, 0x0a, 0x37, 0x6c, 0x7e, 0x25, 0xd5, 0xf2, 0x9a,
  0x97, 0xd6, 0x53, 0x13, 0xdd, 0x73, 0xde, 0x13, 0x2c, 0x3c, 0xf7, 0x7e,
  0x82, 0x15, 0xf3, 0x78, 0x9a, 0x31, 0x39, 0x9e, 0x32, 0x3f, 0x64, 0x9c,
  0xaa, 0xe1, 0xd5, 0x6d, 0x27, 0x2f, 0x3a, 0xc3, 0x5b, 0x30, 0x15, 0x48,
  0xb0, 0x42, 0x81, 0x99, 0xbf, 0x0b, 0x1b, 0xce, 0x14, 0x22, 0xf2, 0x75,
  0x38, 0x7f, 0x9a, 0xe6, 0xf7, 0x91, 0x16, 0x7b, 0x26, 0xeb, 0x50, 0x2b,
  0x24, 0x36, 0xaa, 0xd4, 0x72, 0xd6, 0xca, 0x16, 0xfc, 0x38, 0x01, 0xe5,
  0xdc, 0x2e, 0x1b, 0x7c, 0x75, 0xf3, 0x55, 0x9a, 0x55, 0x76, 0x0b, 0xbe,
  0x4b, 0x7f, 0x3e, 0x3f, 0x7c, 0xe9, 0xbc, 0x2e, 0xdc, 0x14, 0x97, 0xb4,
  0xbe, 0x93, 0xd4, 0x99, 0x59, 0xf4, 0x6b, 0x2c, 0x6e, 0x0f, 0x74, 0xd0,
  0xda, 0x5a, 0x47, 0x7f, 0x6f, 0x7d, 0x5b, 0x57, 0x02, 0x67, 0x14, 0xe2,
  0x07, 0x4a, 0x15, 0x1f, 0xf9, 0x91, 0xe6, 0xc8, 0x2e, 0x6e, 0xad, 0x41,
  0x5d, 0x5f, 0x5c, 0x3b, 0xee, 0x0f, 0x50, 0xfe, 0xe0, 0x05, 0x27, 0xe9,
  0xe8, 0x74, 0xfe, 0x52, 0x46, 0x3a, 0x9f, 0x8d, 0xbd, 0xed, 0x08, 0xec,
  0x27, 0xba, 0x7c, 0xd9, 0x4f, 0x3c, 0x1d, 0xcd, 0x54, 0xb5, 0xd9, 0xc9,
  0x5d, 0xb8, 0x7f, 0x41, 0x54, 0x86, 0x0e, 0xbd, 0xdd, 0x8f, 0x41, 0x9e,
  0xcc, 0x8d, 0x23, 0xa2, 0xf5, 0x83, 0xb2, 0x66, 0xc1, 0x3f, 0xf8, 0x73,
  0x32, 0xe6, 0xb2, 0xc5, 0x11, 0x36, 0x01, 0x81, 0x5f, 0x6f, 0x64, 0xe2,
  0x4d, 0x9e, 0xde, 0x73, 0xbb, 0xaf, 0x9c, 0xa5, 0x81, 0x4b, 0x13, 0xe5,
  0xa2, 0x22, 0x70, 0x49, 0x5c, 0xf7, 0x1b, 0x0a, 0xa1, 0x06, 0x2c, 0x47,
  0x87, 0x23, 0x8e, 0xd4, 0x7c, 0x98, 0x0b, 0x5d, 0xb0, 0x56, 0x61, 0x95,
  0xaa, 0x59, 0xdd, 0x8c, 0x0f, 0x5f, 0xc0, 0xe7, 0xa2, 0x81, 0x01, 0xac,
  0x1b, 0xa7, 0xbe, 0x34, 0xf9, 0x5a, 0x72, 0x30, 0xf6, 0x61, 0x14, 0x52,
  0xd2, 0x81, 0xae, 0xd8, 0x48, 0xa2, 0x2e, 0xf1, 0x00, 0x0b, 0xda, 0x7f,
  0x59, 0x68, 0x1a, 0xda, 0xed, 0x20, 0xa6, 0x50, 0xea, 0x8b, 0xf3, 0x6b,
  0xd9, 0xb4, 0xe0, 0x2e, 0x07, 0xf4, 0x8c, 0x23, 0xf2, 0xb3, 0x74, 0x81,
  0x9f, 0x0e, 0xeb, 0x4e, 0x37, 0x76, 0x39, 0xbe, 0x3f, 0x05, 0x25, 0x0f,
  0x4a, 0xb8, 0x48, 0xcc, 0xef, 0xea, 0x7f, 0xfc, 0x7a, 0xf9, 0xe3, 0xc3,
  0xa9, 0x37, 0xf2, 0x31, 0xe3, 0x15, 0xb8, 0xc3, 0xbe, 0x54, 0x62, 0x34,
  0xe3, 0x31, 0xd1, 0xb8, 0x38, 0x6e, 0xa0, 0x1a, 0x7f, 0x92, 0xa4, 0x03,
  0xb5, 0x03, 0x95, 0xfb, 0xd8, 0xc2, 0x2b, 0x59, 0x02, 0x5b, 0x09, 0x6f,
  0xbc, 0xef, 0xc8, 0x03, 0x5b, 0x1b, 0x6e, 0x28, 0xcd, 0xe7, 0xc2, 0xad,
  0x64, 0x20, 0x11, 0xa7, 0x81, 0x84, 0x4e, 0xa5, 0xda, 0xb9, 0x68, 0xab,
  0x0f, 0x65, 0xf4, 0x35, 0x9d, 0x57, 0xa8, 0x9f, 0x0a, 0x8e, 0xdc, 0xf9,
  0xb9, 0x35, 0x62, 0xb2, 0xe2, 0x85, 0xa9, 0xa2, 0xfd, 0x25, 0x59, 0x19,
  0x66, 0xf2, 0xa0, 0x57, 0x95, 0x92, 0x2e, 0x16, 0x3d, 0x39, 0x9a, 0x81,
  0xc1, 0x0a, 0x30, 0x4d, 0xe7, 0x41, 0x45, 0x03, 0x16, 0xeb, 0xff, 0xff,
  0x04, 0x00, 0x00, 0x00, 0x00, 0x04, 0x00, 0x00, 0xce, 0x81, 0xf6, 0xa5,
  0x1b, 0xa1, 0xed, 0x91, 0x8e, 0x5a, 0x11, 0x4f, 0xf0, 0x0b, 0xe8, 0xb4,
  0xac, 0x6e, 0x61, 0x4c, 0xf3, 0x99, 0xd5, 0x51, 0x6d, 0xce, 0x54, 0xd8,
  0xf4, 0xac, 0x2f, 0xf4, 0xc7, 0xa0, 0x3d, 0xfb, 0x57, 0x15, 0xcd, 0x8f,
  0xcf, 0xf9, 0x1a, 0x5e, 0x7f, 0xda, 0xb3, 0xe7, 0x92, 0xce, 0xeb, 0xc1,
  0x33, 0x03, 0x91, 0x2f, 0x26, 0xa5, 0x56, 0x68, 0x6c, 0x71, 0xdf, 0x46,
  0x07, 0x08, 0xd9, 0xc5, 0x5b, 0xc8, 0x86, 0x49, 0xe0, 0x8f, 0x00, 0x2d,
  0x9a, 0xba, 0x24, 0x53, 0x3a, 0xd0, 0x7f, 0xdd, 0x6e, 0x5c, 0xf2, 0x06,
  0x9f, 0x70, 0xfd, 0xb4, 0x8c, 0x76, 0xaa, 0x8d, 0xe5, 0x2c, 0xd4, 0xe0,
  0x4a, 0xa4, 0xab, 0xc0, 0x34, 0xe9, 0x81, 0x04, 0xd4, 0x03, 0xd2, 0xb4,
  0x65, 0xf7, 0x08, 0x33, 0xa0, 0x27, 0x69, 0xfc, 0xb8, 0xcb, 0x3c, 0x21,
  0x2e, 0xd5, 0x9b, 0xc4, 0x81, 0xf4, 0x17, 0x1f, 0x25, 0xbe, 0xf9, 0xdc,
  0x6c, 0xc4, 0xcb, 0xfc, 0x45, 0x1d, 0xbf, 0x31, 0x48, 0x7d, 0xe8, 0xb1,
  0xc2, 0x19, 0xa9, 0x0d, 0x3c, 0xe5, 0xb9, 0x1c, 0x0f, 0xf8, 0x71, 0x5d,
  0xf5, 0x37, 0xe6, 0x84, 0xd7, 0xbe, 0x5c, 0x4d, 0x2b, 0x47, 0x94, 0x39,
  0xa3, 0xf4, 0xdd, 0xe2, 0xa3, 0x0d, 0xba, 0x63, 0x10, 0x05, 0xe8, 0x27,
  0x22, 0x73, 0xfc, 0x8c, 0x15, 0x81, 0xc8, 0xb6, 0xa2, 0x4f, 0x5b, 0x2a,
  0x0c, 0x2e, 0x3e, 0xf5, 0xf6, 0x05, 0xbe, 0x19, 0x29, 0xd8, 0x81, 0x31,
  0xe4, 0xfc, 0xd6, 0x54, 0x8a, 0x53, 0xaa, 0x98, 0x28, 0x21, 0xed, 0xab,
  0x9b, 0xef, 0x34, 0xc7, 0x2d, 0xde, 0x63, 0xaf, 0xab, 0x60, 0x0f, 0x6a,
  0xea, 0xf8, 0xab, 0x5d, 0x81, 0xb6, 0xad, 0x43, 0xd4, 0x0b, 0x05, 0xda,
  0xae, 0x5b, 0x76, 0x1d, 0xd4, 0xd2, 0xde, 0x78, 0xf9, 0x5b, 0xcf, 0x5f,
  0x00, 0x20, 0xeb, 0xd8, 0x91, 0x02, 0x8b, 0x07, 0x7f, 0xb0, 0x33, 0xf7,
  0xee, 0xa6, 0xd2, 0x63, 0x39, 0xbd, 0xf1, 0x17, 0xab, 0x24, 0xc6, 0xf1,
  0x20, 0x4d, 0xb6, 0xc9, 0xb4, 0x4b, 0xf4, 0x2f, 0xf3, 0x0a, 0x42, 0xe8,
  0x27, 0x30, 0xc9, 0x32, 0xa6, 0xc9, 0xdb, 0x9d, 0x18, 0xf4, 0x9a, 0x1f,
  0x4e, 0x64, 0x18, 0x6b, 0xda, 0xf0, 0x81, 0x4c, 0x22, 0x2f, 0x23, 0x5e,
  0xc4, 0xc2, 0xfd, 0x23, 0x23, 0x01, 0x02, 0x2b, 0x40, 0xcc, 0xbd, 0x42,
  0x67, 0xf0, 0x7f, 0xf2, 0xb8, 0x61, 0x03, 0x64, 0xfe, 0x7e, 0xc3, 0x27,
  0xf7, 0x0c, 0xe4, 0xe8, 0x6a, 0x0a, 0x07, 0x45, 0xaf, 0xc9, 0x08, 0x02,
  0x2b, 0xae, 0x8d, 0x1f, 0xea, 0x78, 0x8c, 0x97, 0x9e, 0xb5, 0x5b, 0x9a,
  0x86, 0x43, 0x01, 0x69, 0x6e, 0xd7, 0xaa, 0x9a, 0x07, 0x41, 0x1c, 0xb9,
  0xbe, 0x1b, 0xc6, 0x7f, 0x6e, 0xa1, 0xba, 0xb2, 0x9f, 0x33, 0x1e, 0xd2,
  0xe6, 0x66, 0x97, 0x8c, 0xb8, 0xc0, 0x4b, 0x30, 0xaf, 0x13, 0x6b, 0x14,
  0xab, 0xb0, 0x09, 0x1d, 0xfe, 0x10, 0x3c, 0x41, 0xba, 0x81, 0x1d, 0x35,
  0x2d, 0x22, 0xd7, 0xd5, 0x03, 0x0b, 0x5c, 0x64, 0xef, 0xe6, 0x71, 0x18,
  0x08, 0xd1, 0xfe, 0x41, 0xc0, 0xe1, 0x67, 0x54, 0x5e, 0xd3, 0x98, 0x09,
  0x64, 0x7f, 0x4e, 0x69, 0x06, 0x6d, 0x6e, 0x45, 0xf0, 0x41, 0x97, 0xc8,
  0xb1, 0x10, 0xd1, 0x90, 0x00, 0x51, 0x5d, 0xec, 0xd9, 0xa1, 0x7f, 0x3a,
  0x36, 0x39, 0xdf, 0xd5, 0x59, 0x26, 0x1f, 0x5c, 0x02, 0xa3, 0x38, 0x21,
  0x83, 0xd9, 0xed, 0x3f, 0xb6, 0xe5, 0xdc, 0x5b, 0xa6, 0xaa, 0x27, 0xfd,
  0x51, 0x2c, 0x02, 0xed, 0x07, 0x45, 0x81, 0x09, 0xcb, 0x1d, 0x21, 0x36,
  0xe9, 0x8c, 0xe2, 0x3c, 0x4a, 0x3a, 0xec, 0x16, 0xed, 0xf1, 0x46, 0x9d,
  0xd5, 0x12, 0x27, 0x3d, 0xf6, 0xd8, 0xc7, 0xac, 0xa3, 0xc2, 0x67, 0xed,
  0x8a, 0x56, 0x08, 0x40, 0x05, 0x7f, 0x06, 0x73, 0xf1, 0x1d, 0x72, 0xc4,
  0x6a, 0x17, 0x52, 0x95, 0xa6, 0x31, 0x61, 0x57, 0x0e, 0xfe, 0x63, 0x9f,
  0x74, 0xab, 0xf0, 0x7f, 0xcd, 0xd9, 0x7f, 0x0f, 0x2a, 0x20, 0x35, 0xfe,
  0x22, 0x42, 0x1b, 0x29, 0x71, 0x70, 0x2c, 0x81, 0x24, 0xe3, 0x66, 0xf5,
  0xd3, 0x50, 0x26, 0xb0, 0xb6, 0xa4, 0x0f, 0xfc, 0x38, 0x8b, 0x0a, 0xba,
  0x24, 0x81, 0xf0, 0xc9, 0xd7, 0x57, 0xca, 0xc2, 0x1d, 0xfb, 0x84, 0xe9,
  0xb4, 0xe1, 0x1b, 0xd5, 0xfd, 0xa5, 0xd4, 0x12, 0xed, 0x11, 0x5b, 0xfa,
  0xca, 0x2c, 0x3d, 0xc0, 0xbd, 0xea, 0xd4, 0x7f, 0x99, 0x14, 0x5d, 0x92,
  0x59, 0x14, 0x8d, 0x4b, 0x1a, 0xc4, 0xcc, 0x01, 0x4a, 0x22, 0xc4, 0x00,
  0xc5, 0xb9, 0x2e, 0xcc, 0x54, 0xa4, 0x9e, 0x9f, 0xa7, 0x58, 0xd1, 0xbe,
  0x96, 0xab, 0x5e, 0x49, 0x44, 0x81, 0xac, 0xe5, 0xe3, 0x00, 0xde, 0xd7,
  0xe4, 0x13, 0x2a, 0xb7, 0xd3, 0x01, 0xea, 0x14, 0x4c, 0x53, 0xfa, 0x14,
  0x57, 0x0f, 0x17, 0xa1, 0x05, 0x5d, 0x58, 0x9d, 0xfb, 0x9a, 0xc9, 0xd7,
  0xfe, 0xd9, 0xfe, 0xfc, 0xcb, 0x3b, 0xf2, 0xdb, 0x0b, 0x02, 0x40, 0x7f,
  0xea, 0x4f, 0x99, 0xd4, 0x94, 0x61, 0xff, 0x4b, 0xfe, 0x2f, 0x0c, 0xc2,
  0x5a, 0x65, 0x20, 0xd6, 0x4e, 0x76, 0x43, 0x96, 0xf5, 0x23, 0xf8, 0x40,
  0xea, 0x54, 0x78, 0xae, 0x3c, 0x91, 0x78, 0xdf, 0xa1, 0xbf, 0x25, 0x06,
  0x00, 0x04, 0x27, 0x81, 0x9a, 0x64, 0xad, 0x55, 0xcc, 0x3f, 0x2c, 0x3f,
  0xe6, 0xb1, 0x30, 0x91, 0x0c, 0xaf, 0x55, 0xe6, 0xf1, 0xc2, 0x51, 0xac,
  0x6d, 0x08, 0xba, 0xf6, 0x18, 0xd3, 0xd9, 0x27, 0x33, 0x61, 0x3a, 0x7f,
  0x23, 0x23, 0x36, 0xe7, 0xfa, 0xc3, 0xfa, 0x13, 0x3d, 0x30, 0x99, 0xcd,
  0x67, 0x07, 0xe7, 0x42, 0xcb, 0x6e, 0xf3, 0x49, 0xf8, 0xd6, 0xd5, 0x7f,
  0xb8, 0x57, 0x42, 0xaa, 0x79, 0x6f, 0xb4, 0x6b, 0x1f, 0x54, 0x5d, 0xbd,
  0xed, 0x67, 0xee, 0x42, 0x61, 0x81, 0xcb, 0xf8, 0x98, 0x58, 0x71, 0x12,
  0x1d, 0xc1, 0x26, 0x52, 0xa8, 0xc3, 0xe5, 0xa1, 0xa4, 0x8e, 0x10, 0x92,
  0xde, 0x9a, 0x6c, 0x13, 0x45, 0x8a, 0x1b, 0x1a, 0x3d, 0xe8, 0xa4, 0x84,
  0x8d, 0x50, 0xca, 0xab, 0x81, 0xcc, 0x98, 0xde, 0xdf, 0x00, 0x03, 0x22,
  0x94, 0x3d, 0x9a, 0xa4, 0x47, 0x30, 0xd3, 0xc1, 0xd0, 0xf3, 0x3c, 0x92,
  0x16, 0xa3, 0x18, 0x69, 0x1d, 0x40, 0xaa, 0x46, 0x63, 0x0d, 0x34, 0xcb,
  0xf4, 0x09, 0xdd, 0xbb, 0x81, 0x29, 0x21, 0x4b, 0x01, 0x5f, 0x68, 0xf2,
  0xa2, 0xa9, 0xdd, 0xbd, 0x72, 0x99, 0x44, 0x0e, 0x1e, 0x66, 0xc9, 0x1c,
  0xea, 0xbc, 0x4b, 0x8c, 0x32, 0x5e, 0xcf, 0x5b, 0xc3, 0x66, 0xfd, 0xe5,
  0x51, 0x51, 0x37, 0x33, 0x95, 0xb0, 0xd6, 0x7f, 0x2c, 0xe6, 0x5d, 0x24,
  0xee, 0x1d, 0xe0, 0xbd, 0x50, 0xbb, 0xad, 0xc6, 0x67, 0x0f, 0xc3, 0xd2,
  0x7a, 0xdc, 0xa5, 0xa0, 0x7f, 0x6e, 0xba, 0x3d, 0x50, 0xcb, 0x35, 0x10,
  0x20, 0x28, 0x4b, 0xe5, 0xc3, 0xb7, 0x3c, 0x72, 0x54, 0x3d, 0x86, 0x17,
  0xf6, 0x49, 0x4f, 0x30, 0xcb, 0x72, 0x75, 0xd1, 0x7d, 0x32, 0xa8, 0x42,
  0x10, 0x2d, 0xdb, 0x21, 0x95, 0xc0, 0x69, 0xcb, 0x1b, 0x3d, 0x35, 0x13,
  0x7f, 0xc7, 0x16, 0x9d, 0xaa, 0x1a, 0x68, 0x52, 0x4e, 0x61, 0x5f, 0xf9,
  0x42, 0x5d, 0x7f, 0x8e, 0x45, 0x9f, 0xa1, 0xdc, 0xae, 0x6f, 0x88, 0xdf,
  0xe4, 0xf8, 0x4f, 0xcb, 0x0d, 0x7f, 0x61, 0xe3, 0x75, 0x77, 0xab, 0x48,
  0xd1, 0x34, 0xf9, 0x22, 0xbc, 0xbe, 0x1f, 0x4b, 0x02, 0x28, 0xc6, 0xb7,
  0x22, 0xef, 0xff, 0xff, 0x04, 0x00, 0x00, 0x00, 0x00, 0x04, 0x00, 0x00,
  0x08, 0x63, 0x98, 0xbe, 0xe7, 0xe2, 0x30, 0x3e, 0x4e, 0x86, 0x70, 0x3e,
  0xf4, 0x0a, 0xb6, 0x3d, 0xca, 0xbb, 0x2d, 0x3e, 0xe1, 0xcc, 0x4d, 0xbe,
  0x7d, 0x50, 0xa8, 0xbd, 0x95, 0xd5, 0x72, 0x3e, 0xa4, 0x33, 0xac, 0xb9,
  0x8e, 0xff, 0x84, 0xbe, 0xa0, 0xda, 0x47, 0x3e, 0xe3, 0x62, 0x9f, 0x3e,
  0x2e, 0x52, 0x01, 0xbd, 0x7b, 0x58, 0x99, 0x3e, 0x33, 0x78, 0xa9, 0xbd,
  0x13, 0xc8, 0x1e, 0xbd, 0x02, 0xc6, 0x19, 0x3e, 0xb8, 0x16, 0xd3, 0x3d,
  0x88, 0xa9, 0x99, 0xbe, 0xfb, 0x7f, 0x57, 0x3e, 0x23, 0xb2, 0x25, 0x3e,
  0x96, 0xa0, 0x46, 0x3d, 0x46, 0x8a, 0xd5, 0x3d, 0xf7, 0x97, 0x94, 0xbe,
  0x29, 0x68, 0xa6, 0x3d, 0x0c, 0xbc, 0x36, 0xbd, 0x60, 0x2d, 0x30, 0x3e,
  0x28, 0x70, 0x71, 0xbd, 0xc3, 0xb1, 0x8b, 0x3e, 0x61, 0xe6, 0x5c, 0xbe,
  0x81, 0x36, 0x53, 0xbe, 0xbf, 0x25, 0x49, 0x3e, 0x18, 0x17, 0x3a, 0x3e,
  0x98, 0xfb, 0xef, 0x3d, 0x6d, 0xed, 0xe0, 0xbd, 0xc4, 0x0f, 0x20, 0xbe,
  0x32, 0x2a, 0x13, 0x3e, 0xc8, 0x74, 0xbb, 0xbe, 0xa2, 0xd2, 0x36, 0xbe,
  0x6e, 0xa2, 0x5b, 0x3e, 0x14, 0xae, 0x33, 0x3e, 0xc1, 0xb7, 0x59, 0x3c,
  0x51, 0x91, 0x8c, 0x3e, 0x59, 0x30, 0x91, 0x3c, 0x31, 0x52, 0x80, 0x3e,
  0x04, 0x2b, 0x60, 0x3d, 0x54, 0xd6, 0x1d, 0xbd, 0x27, 0x9e, 0x88, 0xbe,
  0x54, 0x9d, 0x65, 0xbe, 0x87, 0xc2, 0x13, 0xbe, 0xd5, 0x41, 0x0d, 0xbe,
  0x4e, 0x70, 0x8b, 0xbe, 0x9a, 0xbf, 0x86, 0x3e, 0x3b, 0x1e, 0xb6, 0x3e,
  0xa1, 0x82, 0x07, 0x3e, 0x78, 0x2a, 0x93, 0x3e, 0x47, 0x4f, 0x3c, 0x3e,
  0x18, 0x74, 0x89, 0x3c, 0x69, 0xa7, 0x93, 0xbe, 0xb7, 0xe2, 0x10, 0xbe,
  0x95, 0x04, 0x1f, 0x3e, 0x9d, 0x48, 0x9c, 0x3e, 0x27, 0xf0, 0xac, 0x3d,
  0x43, 0x66, 0x2c, 0xbd, 0x71, 0xa3, 0x97, 0xbd, 0x60, 0x3e, 0x6b, 0x3e,
  0xf5, 0xa0, 0xd7, 0xbd, 0x37, 0x50, 0xab, 0xbc, 0x80, 0xe5, 0x18, 0xbe,
  0xad, 0xa0, 0xb0, 0x3d, 0x83, 0x1f, 0x92, 0xbe, 0xa8, 0xe7, 0xc1, 0xbd,
  0x6b, 0x4c, 0xa8, 0xbe, 0xf9, 0xf7, 0xca, 0x3d, 0x7c, 0x0d, 0xb7, 0xbe,
  0x69, 0x01, 0x34, 0xbd, 0xae, 0x4f, 0x51, 0xbe, 0x43, 0x9a, 0x04, 0x3e,
  0xe2, 0xf1, 0xd0, 0x3d, 0x24, 0x60, 0x08, 0x3e, 0xb4, 0x10, 0x13, 0x3e,
  0x62, 0xb8, 0xa0, 0xbb, 0xfc, 0x9d, 0x15, 0x3e, 0x2f, 0x89, 0x51, 0xbe,
  0xcc, 0x1b, 0x41, 0x3e, 0xc3, 0xfe, 0x10, 0x3d, 0x9c, 0x8b, 0x92, 0xbe,
  0x6e, 0xc4, 0x80, 0x3e, 0x19, 0x84, 0xda, 0x3d, 0x71, 0x94, 0x9a, 0x3e,
  0x84, 0x87, 0xa6, 0xbe, 0xe8, 0x12, 0x31, 0x3e, 0x16, 0x42, 0x98, 0xbd,
  0x7b, 0xd6, 0xfa, 0x3d, 0x97, 0x43, 0xc7, 0xbd, 0x13, 0x39, 0x88, 0xbe,
  0xf2, 0xc0, 0x26, 0xbe, 0xaf, 0x64, 0x87, 0xbe, 0xc8, 0x39, 0x48, 0x3e,
  0x93, 0x1b, 0x82, 0x3d, 0x6f, 0xc4, 0xa1, 0xbe, 0xdb, 0x5b, 0x1f, 0x3e,
  0xb2, 0xc6, 0xc8, 0x3d, 0x93, 0xa2, 0x83, 0x3e, 0x10, 0x49, 0x61, 0xbe,
  0xe1, 0x27, 0xea, 0xbd, 0xe0, 0xd4, 0x95, 0xbe, 0xf7, 0x4c, 0x6f, 0xbd,
  0xb9, 0x70, 0x83, 0xbe, 0xe9, 0xe9, 0x16, 0x3e, 0xbc, 0x57, 0x12, 0xbd,
  0xb0, 0xc1, 0xf6, 0x3d, 0x2d, 0xa1, 0xca, 0xbd, 0xa0, 0xe8, 0x34, 0x3e,
  0x0d, 0x9f, 0x86, 0x3e, 0x3b, 0xd9, 0x95, 0x3e, 0xa5, 0x34, 0x53, 0x3e,
  0x66, 0x9c, 0x77, 0xbe, 0xe3, 0x04, 0x88, 0x3e, 0xd9, 0x22, 0x24, 0xbd,
  0x8b, 0xfc, 0x12, 0xbe, 0x49, 0xf4, 0x6f, 0x3d, 0xf4, 0x9b, 0x79, 0xbe,
  0x2f, 0xf8, 0xb4, 0xbd, 0x80, 0x29, 0x1b, 0x3e, 0xe2, 0x17, 0x3c, 0xbe,
  0x08, 0x2c, 0xce, 0xbd, 0x3e, 0x19, 0xaf, 0xbe, 0x40, 0xe1, 0x1f, 0xbe,
  0x0e, 0xf6, 0x0f, 0xbe, 0x11, 0x66, 0x46, 0xbe, 0x1f, 0xc1, 0xf6, 0xbd,
  0x4e, 0x6d, 0xc3, 0xbd, 0x14, 0x3e, 0x40, 0xbe, 0x16, 0xce, 0x2a, 0xbe,
  0x9c, 0x31, 0xdf, 0xbc, 0x31, 0xaf, 0x9c, 0xbe, 0x77, 0xc1, 0x9a, 0x3e,
  0x08, 0xb9, 0x20, 0x3e, 0xd2, 0x05, 0x9d, 0xbe, 0x61, 0x74, 0xb6, 0x3d,
  0xe3, 0x77, 0xa3, 0xbd, 0xa3, 0x5a, 0x4d, 0x3e, 0x05, 0xaa, 0xa2, 0x3b,
  0xac, 0x4c, 0x17, 0x3d, 0x0e, 0xd8, 0x91, 0x3d, 0x37, 0xb6, 0x37, 0xbb,
  0x81, 0x6e, 0xc1, 0x3d, 0x53, 0x3c, 0x58, 0x3e, 0x5f, 0xc1, 0x6b, 0xbd,
  0xef, 0x73, 0xf2, 0x3d, 0xae, 0xfe, 0x49, 0xbe, 0x8c, 0x7e, 0x97, 0x3e,
  0x5e, 0x90, 0x81, 0x3e, 0xf1, 0x47, 0x4c, 0xbe, 0x35, 0x46, 0x93, 0xbe,
  0xf5, 0xb1, 0x0e, 0x3e, 0xb6, 0xd8, 0x14, 0x3e, 0xc0, 0x3e, 0x90, 0x3e,
  0x28, 0x90, 0x7c, 0xbe, 0x36, 0x20, 0x54, 0x3d, 0x2b, 0xa9, 0x1d, 0xbe,
  0x44, 0xed, 0x47, 0xbe, 0xd7, 0xa7, 0xef, 0xbd, 0xa3, 0xf8, 0x48, 0x3e,
  0xa9, 0x87, 0xb5, 0x3d, 0x7a, 0xe0, 0x31, 0x3e, 0xae, 0x0c, 0x4e, 0x3c,
  0x59, 0x38, 0x07, 0xbe, 0x17, 0xad, 0x95, 0x3e, 0xa6, 0x4c, 0xed, 0xbd,
  0x11, 0x7e, 0x34, 0xbe, 0xc7, 0x00, 0xf6, 0x3d, 0x0e, 0x8d, 0x70, 0xbe,
  0x8c, 0x54, 0x50, 0xbe, 0x4e, 0x37, 0x92, 0x3e, 0xa4, 0x34, 0xc5, 0x3d,
  0x2e, 0xb4, 0x96, 0xbd, 0x08, 0x0b, 0xc5, 0xbd, 0x79, 0x41, 0xf9, 0x3d,
  0xbf, 0x11, 0x44, 0x3d, 0x1b, 0x06, 0x42, 0x3c, 0x11, 0x01, 0x63, 0xbe,
  0xfb, 0xd5, 0x24, 0x3e, 0x97, 0x7f, 0x95, 0x3e, 0x6b, 0x24, 0x9b, 0x3e,
  0x6f, 0x9f, 0xc4, 0xbd, 0xe0, 0x88, 0x9f, 0xbd, 0xa4, 0xd0, 0x82, 0x3e,
  0xe9, 0x98, 0x74, 0x3d, 0x24, 0x4b, 0x7a, 0xbe, 0xa2, 0x03, 0x06, 0xbd,
  0x90, 0x40, 0x9d, 0xbe, 0xd9, 0x10, 0x92, 0xbd, 0x6f, 0xbb, 0x83, 0x3e,
  0xdf, 0xc8, 0x9a, 0xbe, 0xbc, 0x42, 0x0c, 0xbe, 0x79, 0x6d, 0xa7, 0xbe,
  0xf3, 0x4b, 0x9c, 0x3e, 0xb0, 0x83, 0xb4, 0x3d, 0x29, 0xb1, 0x8f, 0xbe,
  0x43, 0x2d, 0x8f, 0xbd, 0x0c, 0x6f, 0xb2, 0x3d, 0xef, 0x63, 0xa9, 0x3d,
  0xd8, 0x9e, 0x19, 0x3d, 0x69, 0x79, 0xd2, 0xbd, 0x57, 0xdc, 0xdd, 0x3d,
  0xe3, 0xe8, 0x7a, 0xbe, 0xd0, 0x54, 0x93, 0x3e, 0x8d, 0xc9, 0x91, 0x3e,
  0x9e, 0x49, 0xf7, 0x3c, 0x17, 0xd3, 0x93, 0xbe, 0x50, 0x57, 0x84, 0xbd,
  0x68, 0x10, 0x8c, 0xbd, 0xae, 0xac, 0x40, 0xbe, 0x38, 0x1c, 0x69, 0x3d,
  0x18, 0xc9, 0x22, 0xbe, 0x4d, 0x9e, 0x05, 0xbe, 0x5d, 0x96, 0x29, 0x3e,
  0x04, 0xd4, 0x8e, 0x3d, 0x81, 0x45, 0x36, 0xbe, 0x45, 0x89, 0xae, 0x3d,
  0x14, 0x4d, 0x29, 0xbe, 0x8f, 0x2e, 0x7b, 0xbe, 0xf4, 0x4a, 0xb5, 0xbc,
  0x22, 0x02, 0xc6, 0x3d, 0x4c, 0x94, 0x99, 0xbe, 0x8d, 0x7c, 0x76, 0x3e,
  0x6d, 0xc1, 0x0c, 0x3e, 0xde, 0x77, 0xe3, 0x3d, 0x9f, 0x50, 0xa7, 0x3e,
  0x0c, 0x80, 0x0b, 0x3e, 0xf7, 0xe1, 0x49, 0xbe, 0x54, 0xe8, 0x03, 0xbe,
  0x62, 0xff, 0x42, 0x3e, 0xcf, 0x70, 0xec, 0x3d, 0x38, 0x96, 0x82, 0xbe,
  0x14, 0xf3, 0x9e, 0x3e, 0xb0, 0x94, 0xbe, 0xbd, 0x63, 0x6a, 0x86, 0xbe,
  0xe1, 0x62, 0x68, 0x3e, 0x80, 0xb5, 0x70, 0xbc, 0x2a, 0xd5, 0x7b, 0x3e,
  0x26, 0x8b, 0x81, 0xbe, 0x7b, 0xf1, 0x85, 0x3e, 0x43, 0xea, 0x0c, 0x3e,
  0xd1, 0xa7, 0x48, 0xbe, 0xa1, 0xf4, 0x3c, 0xbd, 0xa1, 0x0c, 0x1d, 0xbd,
  0x35, 0x92, 0xd9, 0x3c, 0x84, 0x4c, 0xfa, 0xbd, 0x25, 0x94, 0x8d, 0xbe,
  0x87, 0xdf, 0x81, 0xbd, 0xb4, 0x8a, 0x58, 0x3e, 0x2f, 0xd5, 0x9b, 0xbe,
  0xcc, 0xc1, 0x4b, 0x3d, 0x2e, 0xf3, 0xff, 0xff, 0x04, 0x00, 0x00, 0x00,
  0x34, 0x00, 0x00, 0x00, 0xaf, 0x70, 0xdf, 0x41, 0x8f, 0xc0, 0xcf, 0x41,
  0xdf, 0xef, 0xce, 0x41, 0x0c, 0x63, 0x07, 0x42, 0x6c, 0x50, 0xcf, 0x40,
  0xca, 0x09, 0xd4, 0x40, 0xc3, 0xfd, 0xbc, 0x41, 0x27, 0x8a, 0x50, 0x40,
  0xca, 0xba, 0x4e, 0x40, 0xac, 0xb3, 0x5e, 0x40, 0xb7, 0xf2, 0x16, 0x3e,
  0xdc, 0x7c, 0x1a, 0x3e, 0x3e, 0x49, 0x2f, 0x43, 0x6e, 0xf3, 0xff, 0xff,
  0x04, 0x00, 0x00, 0x00, 0x80, 0x00, 0x00, 0x00, 0xfe, 0x90, 0x72, 0xbd,
  0x26, 0xc3, 0x6e, 0x3d, 0x0b, 0xe3, 0x09, 0x3d, 0x9f, 0x86, 0x7a, 0xbb,
  0x9d, 0xcf, 0x3d, 0x3d, 0x50, 0xff, 0xd4, 0x3d, 0x37, 0x1f, 0x1f, 0xbd,
  0xe7, 0xb5, 0x9c, 0x3d, 0x0d, 0x14, 0x22, 0x3d, 0xe1, 0xfe, 0x43, 0x3d,
  0x37, 0x08, 0xdf, 0x3a, 0x40, 0xce, 0xc0, 0x3d, 0xe5, 0x94, 0x9f, 0x3d,
  0xb7, 0x45, 0xd5, 0x3d, 0x28, 0x09, 0x94, 0x3d, 0x23, 0xa8, 0x80, 0x3c,
  0x07, 0x74, 0xe2, 0x3c, 0x63, 0x38, 0xa2, 0xbc, 0x82, 0xc4, 0xea, 0xba,
  0x35, 0x47, 0x49, 0x3d, 0xad, 0x8a, 0x45, 0x3d, 0xc4, 0xc1, 0xb3, 0x3d,
  0xfa, 0xe3, 0xa9, 0x3c, 0x9e, 0x74, 0x39, 0xbd, 0x22, 0xf6, 0xa4, 0x3d,
  0x04, 0x50, 0x5b, 0x3d, 0xd5, 0xca, 0xb6, 0x3d, 0xd6, 0xd2, 0x4e, 0x3d,
  0x19, 0x15, 0xaf, 0x3c, 0x6d, 0x4a, 0xaa, 0x3d, 0x69, 0xdd, 0x9e, 0x3d,
  0xfc, 0xd7, 0xc5, 0xbc, 0xfa, 0xf3, 0xff, 0xff, 0x04, 0x00, 0x00, 0x00,
  0x80, 0x00, 0x00, 0x00, 0x37, 0x1e, 0xc1, 0x3c, 0x76, 0xac, 0x91, 0x3c,
  0x50, 0x22, 0x41, 0x3d, 0xd9, 0xe0, 0x54, 0x3d, 0x67, 0xc1, 0x36, 0xbc,
  0x77, 0x27, 0x6e, 0x3d, 0x26, 0xbb, 0x63, 0x3c, 0xf9, 0xfa, 0x52, 0x3c,
  0xf7, 0x0d, 0xd6, 0x3d, 0x2f, 0x17, 0x5d, 0x3d, 0x8c, 0xbd, 0x3f, 0xbd,
  0x56, 0x3d, 0x6b, 0x3c, 0x36, 0x18, 0xa7, 0x3d, 0x98, 0x44, 0xd6, 0xbc,
  0x75, 0x3c, 0x00, 0xbd, 0x3a, 0x7f, 0x4b, 0x3d, 0x40, 0xbe, 0xb6, 0x3d,
  0x51, 0x65, 0x17, 0xbd, 0x0b, 0xe7, 0x99, 0x3d, 0x58, 0xdf, 0x18, 0x3c,
  0xac, 0x88, 0xf4, 0x3d, 0xef, 0x7a, 0xae, 0x3d, 0xd0, 0x8f, 0x02, 0x3d,
  0x8a, 0xa4, 0x42, 0xbc, 0xc9, 0xc3, 0x36, 0x3d, 0xff, 0xd4, 0x35, 0x3d,
  0x51, 0x87, 0x19, 0x3d, 0x72, 0xe4, 0xf8, 0x3c, 0x4d, 0x29, 0xa2, 0x3c,
  0x9d, 0x4e, 0x7c, 0xbb, 0x68, 0xf6, 0xd0, 0x3c, 0x43, 0x0d, 0xe3, 0x3c,
  0x86, 0xf4, 0xff, 0xff, 0x04, 0x00, 0x00, 0x00, 0x80, 0x00, 0x00, 0x00,
  0xcf, 0x8d, 0x72, 0x3d, 0x7e, 0x25, 0xae, 0xbb, 0x5f, 0xca, 0x80, 0x3b,
  0x18, 0x6e, 0x70, 0xbc, 0xf5, 0x98, 0x82, 0x3d, 0xdf, 0x10, 0xa0, 0xbc,
  0x02, 0x24, 0x4b, 0xbb, 0x93, 0xb6, 0x69, 0xbd, 0x23, 0xe9, 0xcf, 0x3c,
  0x9c, 0xb7, 0x0a, 0xbd, 0x92, 0x5c, 0xc5, 0x3d, 0x86, 0xf3, 0xf3, 0x3c,
  0x96, 0x86, 0xf7, 0x3c, 0xc8, 0xb1, 0x53, 0xbc, 0xc7, 0xe9, 0x43, 0x3c,
  0xaf, 0x08, 0xc3, 0x3c, 0xf1, 0xb8, 0xeb, 0x3c, 0xd9, 0xb0, 0x64, 0xbd,
  0x96, 0xd3, 0x34, 0xbd, 0x6c, 0x24, 0x62, 0xbc, 0x37, 0x2a, 0xd4, 0x3c,
  0xfd, 0x70, 0x1f, 0x3d, 0x1f, 0xb6, 0x06, 0x3d, 0xaa, 0x41, 0x8a, 0x3d,
  0x6b, 0xf5, 0x22, 0x3d, 0xe3, 0xca, 0xd0, 0x3d, 0x32, 0x49, 0x36, 0x3d,
  0xfa, 0xa4, 0x1c, 0x3c, 0xd2, 0xee, 0x06, 0x3d, 0xa1, 0xa8, 0x14, 0x3d,
  0xe0, 0x61, 0xc8, 0xbc, 0x9a, 0x1c, 0xee, 0xbc, 0x12, 0xf5, 0xff, 0xff,
  0x04, 0x00, 0x00, 0x00, 0x80, 0x00, 0x00, 0x00, 0xfc, 0x57, 0xcc, 0x3c,
  0x8f, 0xba, 0x89, 0x3d, 0x86, 0xc6, 0x00, 0x3d, 0xb6, 0x73, 0x8e, 0x3c,
  0x4b, 0xcb, 0x43, 0x3c, 0xa6, 0x4e, 0xf8, 0x3c, 0xc4, 0x63, 0x7a, 0xbd,
  0x16, 0xa3, 0xa8, 0xbb, 0xe6, 0x1a, 0x62, 0x3d, 0xfd, 0x71, 0x05, 0xbc,
  0x46, 0x9f, 0x9c, 0xbc, 0xe3, 0x15, 0x99, 0x3c, 0xd1, 0x9e, 0x18, 0xbc,
  0x04, 0x02, 0xc5, 0x3c, 0x38, 0xac, 0x22, 0x3d, 0x79, 0xa6, 0x85, 0x3c,
  0xe5, 0x21, 0x3a, 0xbd, 0x49, 0x4b, 0x29, 0xbd, 0x2f, 0x31, 0x72, 0x3c,
  0xf1, 0xff, 0xa8, 0x3c, 0x3d, 0xab, 0x99, 0x3a, 0xd6, 0x4d, 0x28, 0x3d,
  0x6a, 0xa4, 0xc9, 0x3b, 0xf3, 0x5d, 0x80, 0x3d, 0xdd, 0xdc, 0x58, 0xbb,
  0x23, 0xbf, 0xcc, 0x3b, 0x2d, 0x6c, 0x94, 0xbc, 0xc1, 0x85, 0xb7, 0x3d,
  0x4c, 0x7d, 0xec, 0x3a, 0xfa, 0x5c, 0x75, 0x3b, 0x60, 0xef, 0x18, 0x3d,
  0x87, 0x12, 0xbc, 0xbb, 0x9e, 0xf5, 0xff, 0xff, 0x04, 0x00, 0x00, 0x00,
  0x20, 0x00, 0x00, 0x00, 0x9a, 0xd4, 0x52, 0xba, 0x1f, 0x3f, 0xf5, 0x3c,
  0xcc, 0xc6, 0x49, 0x3d, 0x7f, 0x5d, 0x6c, 0x3a, 0x9f, 0xc9, 0x28, 0xbd,
  0xe1, 0x47, 0x85, 0xbd, 0x95, 0x3a, 0x58, 0xbd, 0xfe, 0xaa, 0xbd, 0xbd,
  0xca, 0xf5, 0xff, 0xff, 0x04, 0x00, 0x00, 0x00, 0x80, 0x06, 0x00, 0x00,
  0xac, 0x11, 0xcc, 0xbe, 0xcb, 0x89, 0xc2, 0x3e, 0x31, 0x07, 0x77, 0xbe,
  0xf8, 0x80, 0xa1, 0xbe, 0x54, 0x74, 0x80, 0x3e, 0x97, 0x03, 0x79, 0x3e,
  0x62, 0x7f, 0x61, 0x3c, 0x1c, 0x8b, 0x81, 0x3e, 0xd3, 0x6d, 0x16, 0x3d,
  0x06, 0x97, 0x8d, 0xbe, 0x1d, 0x66, 0xa2, 0xbe, 0x0c, 0x88, 0x21, 0xbd,
  0xab, 0xe3, 0x6e, 0xbd, 0x86, 0xc5, 0x9e, 0xbe, 0x6c, 0x03, 0x18, 0x3d,
  0xcb, 0x02, 0xc4, 0x3c, 0x5e, 0x0c, 0xea, 0x3e, 0xe2, 0xa1, 0x6f, 0x3e,
  0xa9, 0xda, 0x67, 0x3d, 0x46, 0xf1, 0xc3, 0xbe, 0xd7, 0xcd, 0xe8, 0x3d,
  0x7f, 0x3f, 0x7d, 0x3e, 0x72, 0x63, 0xf6, 0x3e, 0x62, 0x2d, 0xb0, 0xbe,
  0x81, 0x95, 0x1a, 0xbc, 0x82, 0xe3, 0xa1, 0xbe, 0xf2, 0x5c, 0x03, 0xbf,
  0x97, 0x17, 0x79, 0xbe, 0x5a, 0x6e, 0xe8, 0x3d, 0x8b, 0x39, 0x4a, 0x3e,
  0x06, 0xc8, 0x7b, 0x3e, 0x4a, 0x31, 0xc3, 0x3e, 0x45, 0xa1, 0xe7, 0x3e,
  0x94, 0x99, 0x02, 0xbf, 0xb6, 0x21, 0x63, 0xbe, 0xaa, 0x48, 0xb0, 0xbd,
  0xd5, 0x20, 0x88, 0xbe, 0x04, 0x52, 0xb7, 0x3e, 0x89, 0xd6, 0xc0, 0x3e,
  0xa7, 0xee, 0x90, 0x3e, 0xc1, 0xb8, 0xc9, 0x3e, 0x45, 0xb7, 0x83, 0xbe,
  0x92, 0xb4, 0xf1, 0x3e, 0x5d, 0x74, 0x1f, 0xbe, 0xc1, 0x1b, 0xc3, 0xbe,
  0x24, 0x9d, 0xd1, 0xbe, 0xb7, 0xcf, 0xb2, 0x3d, 0x14, 0xf5, 0xfe, 0x3e,
  0x2f, 0x1e, 0x09, 0xbc, 0x76, 0xed, 0x52, 0xbe, 0x97, 0xaa, 0x53, 0xbe,
  0x7e, 0x42, 0x83, 0xbe, 0x95, 0xe6, 0xc3, 0xbe, 0xd6, 0xa9, 0x2a, 0xbe,
  0xd9, 0x17, 0x03, 0x3f, 0x79, 0x6e, 0x88, 0x3e, 0xcf, 0x66, 0x59, 0xbe,
  0x48, 0x6a, 0x17, 0x3e, 0x97, 0x66, 0xc0, 0xbe, 0x02, 0x1f, 0x99, 0x3e,
  0x35, 0xb7, 0x0a, 0xbf, 0x19, 0x5a, 0xc5, 0x3e, 0x6c, 0x77, 0x90, 0x3e,
  0x55, 0x25, 0xb6, 0xbe, 0x2a, 0x42, 0x35, 0x3d, 0x8d, 0xf9, 0xe2, 0x3e,
  0xc7, 0x7d, 0x9c, 0xbe, 0x1a, 0xb2, 0x2c, 0xbe, 0x09, 0xc5, 0x66, 0x3e,
  0x09, 0x13, 0x75, 0xbe, 0x7d, 0x35, 0x6e, 0x3e, 0x72, 0x7e, 0xd9, 0x3e,
  0x86, 0xd0, 0x50, 0xbd, 0xa9, 0x21, 0xab, 0xbd, 0xf9, 0x14, 0x8c, 0xbe,
  0x4e, 0xa1, 0x01, 0x3f, 0x21, 0x30, 0xaa, 0x3e, 0x43, 0x81, 0x8d, 0xbd,
  0xef, 0x18, 0x27, 0xbe, 0x70, 0x1d, 0x7b, 0xbd, 0x9f, 0xb1, 0xb8, 0x3e,
  0xb0, 0xe1, 0xce, 0xbd, 0x0c, 0x06, 0x6b, 0xbe, 0x0c, 0xad, 0xfb, 0xbd,
  0x91, 0x49, 0xb1, 0x3e, 0x7b, 0xdb, 0xa6, 0xbe, 0xaa, 0x52, 0xc2, 0x3c,
  0xcf, 0xa4, 0xca, 0xbe, 0xef, 0x19, 0xe6, 0x3e, 0x3a, 0x26, 0x05, 0xbe,
  0x9f, 0xb5, 0xe2, 0x3d, 0x81, 0x90, 0xb3, 0xbe, 0x49, 0xa9, 0x06, 0x3f,
  0xa0, 0xc4, 0x8b, 0xbe, 0xde, 0x04, 0xd7, 0xbd, 0x5c, 0x76, 0x07, 0x3e,
  0x72, 0xec, 0x8b, 0x3d, 0xd6, 0x11, 0xb0, 0xbe, 0x6f, 0x01, 0xc9, 0xbe,
  0xf3, 0xe7, 0x4a, 0x3e, 0x23, 0xef, 0x2b, 0xbe, 0x96, 0x03, 0xc5, 0x3e,
  0xbf, 0x0b, 0x93, 0x3e, 0xd5, 0x4d, 0x97, 0xbd, 0x8b, 0x2a, 0x2a, 0x3d,
  0xb6, 0x95, 0xaa, 0x3e, 0x64, 0xa8, 0x1d, 0xbe, 0xb1, 0xb7, 0xb5, 0x3d,
  0xc5, 0x11, 0x28, 0x3b, 0xfb, 0x31, 0x68, 0xbd, 0x7f, 0x57, 0xb7, 0xbe,
  0x79, 0xcc, 0xe3, 0x3e, 0xa5, 0xb0, 0x00, 0x3e, 0x26, 0xa0, 0x21, 0xbe,
  0x69, 0xb9, 0x08, 0xbe, 0xb9, 0x51, 0x9a, 0x3e, 0x91, 0xbf, 0xe7, 0xbc,
  0x53, 0x84, 0x46, 0x3e, 0xdd, 0x53, 0xe1, 0x3e, 0xb0, 0xbb, 0x61, 0xbe,
  0x82, 0x81, 0x41, 0xbe, 0xb5, 0xdc, 0x9c, 0x3e, 0xae, 0x2b, 0x3c, 0x3e,
  0x64, 0x62, 0x68, 0xbe, 0x93, 0x78, 0x4c, 0x3e, 0x08, 0xff, 0x5e, 0x3e,
  0x9a, 0x74, 0x8c, 0x3e, 0x68, 0xeb, 0x56, 0x3e, 0x0b, 0x15, 0x4a, 0x3e,
  0x0d, 0x31, 0xdc, 0xbe, 0x1b, 0xe0, 0xec, 0xbe, 0x71, 0xea, 0xfd, 0xbe,
  0x60, 0xea, 0x93, 0x3e, 0xd3, 0xe4, 0xd5, 0xbe, 0xe7, 0xd4, 0x1a, 0xbe,
  0x5c, 0xe7, 0x8e, 0x3e, 0x8d, 0x73, 0x84, 0x3e, 0xd8, 0xda, 0x65, 0xbe,
  0xd2, 0xef, 0xd9, 0xbe, 0x7e, 0x34, 0xed, 0xbe, 0xa0, 0xd9, 0x36, 0x3e,
  0x43, 0x23, 0xd6, 0xbe, 0x23, 0x82, 0x99, 0xbc, 0x54, 0x49, 0xc3, 0x3d,
  0x9a, 0xba, 0xf3, 0xbc, 0xf3, 0xc6, 0x9c, 0x3d, 0x52, 0x6a, 0xef, 0x3e,
  0x68, 0x3a, 0x4a, 0x3e, 0x6b, 0x5d, 0x5f, 0xbd, 0x87, 0xdd, 0xa9, 0xbd,
  0xeb, 0x02, 0xba, 0xbe, 0xdd, 0x3b, 0x0c, 0x3d, 0xfc, 0x89, 0x14, 0xbd,
  0x42, 0x82, 0x43, 0x3c, 0x1e, 0xe3, 0x60, 0xbe, 0x9b, 0x06, 0x9d, 0x3d,
  0xcc, 0x99, 0xed, 0xbe, 0x45, 0x14, 0x00, 0xbf, 0x55, 0xc9, 0xea, 0x3e,
  0x3c, 0x17, 0x94, 0xbe, 0x53, 0x05, 0xb4, 0x3e, 0xca, 0xce, 0x97, 0xbe,
  0x94, 0x11, 0x42, 0xbc, 0x47, 0xfe, 0x2b, 0x3e, 0xe2, 0xa8, 0x93, 0xbe,
  0x6b, 0xc8, 0x3f, 0xbe, 0x44, 0x13, 0xd6, 0x3e, 0x09, 0x82, 0xa4, 0x3e,
  0xfb, 0x88, 0xc9, 0xbe, 0xbe, 0x53, 0xbf, 0xbe, 0xb9, 0xdc, 0xb7, 0xbd,
  0x8c, 0xcf, 0xf9, 0xbe, 0x07, 0xee, 0x0d, 0x3f, 0xa2, 0x60, 0x51, 0x3e,
  0x7b, 0x18, 0x95, 0xbe, 0x20, 0x1a, 0xbd, 0x3e, 0x1b, 0x1d, 0x74, 0xbd,
  0x65, 0x8f, 0x0a, 0xbe, 0x4c, 0x9e, 0x13, 0xbf, 0x77, 0x62, 0xab, 0xbe,
  0xed, 0x56, 0xb0, 0xbe, 0xe7, 0x4e, 0xb5, 0x3e, 0x19, 0x36, 0xa9, 0x3e,
  0x0a, 0x67, 0x51, 0xbe, 0x7f, 0xc1, 0xe4, 0xbc, 0xe7, 0x69, 0xc5, 0x3d,
  0x2e, 0xa5, 0x02, 0x3e, 0xf8, 0x92, 0x63, 0x3e, 0xb5, 0x84, 0xb4, 0xbe,
  0x1d, 0xc2, 0x99, 0x3e, 0x20, 0x90, 0xb5, 0x3e, 0xcc, 0xd3, 0x33, 0xbe,
  0x35, 0x1d, 0xfc, 0x3e, 0x0d, 0xdc, 0x00, 0x3f, 0x2b, 0xf0, 0xcb, 0x3e,
  0x2b, 0xcb, 0xcf, 0xbe, 0x11, 0x44, 0x2d, 0x3d, 0x85, 0x36, 0xb6, 0x3e,
  0x89, 0x91, 0x40, 0x3e, 0xba, 0xe3, 0x97, 0x3e, 0xa4, 0x2d, 0x30, 0x3e,
  0x24, 0x2e, 0xd8, 0x3e, 0x96, 0x18, 0x87, 0x3e, 0x13, 0xa4, 0xa4, 0xbd,
  0x65, 0x0a, 0x63, 0x3d, 0xd7, 0x04, 0xdb, 0x3d, 0xc9, 0x7d, 0x7f, 0x3e,
  0x92, 0x04, 0x2f, 0x3e, 0x08, 0x5b, 0xe3, 0x3e, 0xb7, 0xe5, 0xd3, 0x3e,
  0xc1, 0x94, 0x83, 0x3e, 0xbc, 0x44, 0x7b, 0xbe, 0xc8, 0xa7, 0x0c, 0x3e,
  0xda, 0xbe, 0xc2, 0xbe, 0xab, 0xc7, 0xda, 0xbe, 0xeb, 0x5c, 0xed, 0xbd,
  0x0b, 0x3a, 0xff, 0x3d, 0x8a, 0x48, 0xb8, 0x3e, 0xee, 0xb6, 0xe9, 0x3e,
  0x72, 0xa5, 0x81, 0xbe, 0xbb, 0x5c, 0x87, 0xbe, 0xcf, 0xc1, 0x0f, 0xbe,
  0xd0, 0xd8, 0x58, 0x3c, 0xf8, 0xfb, 0x1a, 0x3d, 0x75, 0xbf, 0x6a, 0xbe,
  0x72, 0x3c, 0x89, 0x3c, 0x3d, 0xfa, 0x7c, 0xbe, 0x52, 0x9b, 0xbb, 0xbe,
  0x55, 0x27, 0xc9, 0xbe, 0x78, 0xa8, 0x5f, 0x3e, 0x3f, 0x6b, 0xf0, 0x3e,
  0xc6, 0xf2, 0x6e, 0xbe, 0x4a, 0x55, 0xcc, 0x3e, 0x88, 0x10, 0x7e, 0xbe,
  0xbd, 0x28, 0xf7, 0x3e, 0x5d, 0x4e, 0x61, 0xbe, 0xcd, 0xe1, 0x90, 0xbe,
  0x47, 0x11, 0xc1, 0xbe, 0xd3, 0xff, 0xc3, 0x3b, 0xe6, 0x91, 0xdd, 0x3e,
  0x63, 0xfc, 0x95, 0xbe, 0x18, 0x3a, 0x6b, 0xbe, 0x10, 0x30, 0xa0, 0x3d,
  0xcd, 0x4d, 0x0d, 0xbb, 0xa7, 0x3c, 0x9b, 0x3e, 0xce, 0x70, 0x8c, 0xbe,
  0xf0, 0xe7, 0xcc, 0xbe, 0x48, 0x81, 0xb8, 0xbc, 0x56, 0x47, 0x5c, 0xbe,
  0xa7, 0x40, 0x37, 0x3e, 0x4a, 0x10, 0xef, 0x3d, 0x26, 0xe9, 0xe8, 0x3d,
  0xca, 0xe4, 0xda, 0x3e, 0x63, 0x71, 0xbb, 0xbe, 0x5d, 0x7d, 0x52, 0xbe,
  0xfe, 0xae, 0x90, 0x3e, 0xa1, 0xb5, 0x36, 0xbe, 0xf9, 0x4e, 0xc1, 0xbd,
  0x2e, 0x38, 0xf5, 0x3e, 0x7b, 0x8f, 0x95, 0xbd, 0xa2, 0x3d, 0x8d, 0x3e,
  0xfc, 0x54, 0x01, 0xbe, 0x47, 0x3d, 0x02, 0xbf, 0xa5, 0x7c, 0xad, 0xbe,
  0x3c, 0x40, 0x23, 0x3e, 0x6c, 0x48, 0xe4, 0x3e, 0xef, 0xd2, 0xda, 0xbe,
  0x60, 0x3b, 0x64, 0x3e, 0x07, 0x41, 0x75, 0xbe, 0x41, 0xcd, 0x19, 0x3c,
  0x34, 0xd0, 0x93, 0x3e, 0x72, 0x6f, 0xa1, 0x3e, 0xcf, 0xe7, 0x5d, 0x3e,
  0x0e, 0xed, 0x1b, 0xbe, 0x40, 0x35, 0x0a, 0xbe, 0x5c, 0xe3, 0x73, 0x3e,
  0x43, 0x80, 0x1c, 0xbd, 0x26, 0x0b, 0x7a, 0xbe, 0xfc, 0x25, 0x82, 0xbe,
  0xfa, 0x26, 0x80, 0x3a, 0x94, 0x84, 0xc6, 0xbd, 0x98, 0xd8, 0xc2, 0xbc,
  0xb5, 0x74, 0x12, 0xbe, 0x98, 0x82, 0x67, 0x3e, 0x2a, 0x5d, 0xd6, 0xbe,
  0xc4, 0x6f, 0xa7, 0xbe, 0xc7, 0x4b, 0x43, 0x3e, 0xd1, 0x02, 0xce, 0xbd,
  0xe1, 0xd4, 0x89, 0xbd, 0xbb, 0xc4, 0x80, 0x3e, 0x8b, 0x7e, 0x35, 0xbe,
  0x7c, 0xca, 0xd4, 0xbe, 0x1b, 0xdd, 0xc1, 0xbe, 0xb9, 0x35, 0x34, 0x3d,
  0x9a, 0x61, 0xb6, 0xbe, 0xeb, 0x24, 0x21, 0xbe, 0x6e, 0x45, 0x34, 0xbe,
  0x7b, 0x98, 0xaf, 0xbe, 0xbd, 0xfb, 0xc5, 0xbe, 0xd6, 0xfe, 0xad, 0xbe,
  0xd6, 0x9a, 0xa5, 0xbe, 0x17, 0xac, 0xd1, 0xbe, 0xba, 0xa0, 0xd5, 0xbe,
  0x75, 0xf8, 0x9f, 0x3e, 0xda, 0x89, 0x84, 0xbe, 0xe2, 0x35, 0xca, 0x3c,
  0x66, 0x43, 0x95, 0xbd, 0xbc, 0x14, 0x78, 0x3e, 0x4e, 0x05, 0x8a, 0xbd,
  0x08, 0xa9, 0xc5, 0x3d, 0x17, 0x1d, 0xe5, 0x3e, 0xe1, 0x41, 0x21, 0xbe,
  0x31, 0x6a, 0x00, 0x3f, 0x06, 0x22, 0xf6, 0x3a, 0x05, 0x54, 0x87, 0xbe,
  0xd0, 0x9a, 0x25, 0x3e, 0x69, 0x6c, 0xff, 0xbe, 0x1b, 0x4e, 0x25, 0x3d,
  0x27, 0x6b, 0x55, 0xbe, 0x7b, 0x20, 0x12, 0xbe, 0x13, 0x7d, 0xfc, 0x3e,
  0x18, 0x2b, 0xa2, 0xbe, 0x1d, 0x06, 0xac, 0xbe, 0xe4, 0x2a, 0xa5, 0x3e,
  0x5a, 0xf1, 0x95, 0xbe, 0xe0, 0xdc, 0x7f, 0x3e, 0x00, 0x04, 0x2a, 0xbe,
  0xc1, 0x1e, 0x58, 0x3e, 0x14, 0x92, 0xc2, 0xbe, 0xba, 0x6d, 0x89, 0x3e,
  0x2c, 0xf4, 0xad, 0xbd, 0xe3, 0x66, 0x8e, 0xbe, 0xac, 0x57, 0x99, 0xbe,
  0x74, 0x1e, 0xa3, 0x3e, 0x2d, 0x56, 0xd8, 0x3d, 0x43, 0xf5, 0x06, 0x3f,
  0x8a, 0xd2, 0xd0, 0xbe, 0xa1, 0xa2, 0xd9, 0x3e, 0x7c, 0x34, 0x07, 0x3f,
  0x02, 0xe6, 0x01, 0xbe, 0x00, 0x5d, 0x8a, 0x3d, 0xee, 0x11, 0x96, 0xbb,
  0x88, 0xc6, 0xcf, 0xbc, 0x38, 0x4f, 0x76, 0x3e, 0x1a, 0x26, 0x70, 0xbd,
  0xf2, 0x1d, 0x8d, 0xbe, 0x3f, 0x89, 0x2c, 0x3c, 0xd5, 0xcb, 0x5a, 0xbe,
  0xd3, 0x2d, 0x0f, 0x3f, 0x74, 0x07, 0x6d, 0xbd, 0x49, 0xe5, 0xc3, 0xbe,
  0x93, 0x1f, 0xcf, 0xbb, 0xaa, 0xb4, 0xa2, 0xbd, 0xa3, 0x7c, 0xfc, 0x3d,
  0x80, 0xd7, 0xbe, 0x3e, 0x4d, 0x27, 0x94, 0xbe, 0xee, 0x39, 0xd2, 0x3e,
  0x87, 0x46, 0x83, 0x3e, 0x31, 0x30, 0xd8, 0x3e, 0x22, 0x3c, 0x3b, 0xbe,
  0x3e, 0xda, 0x30, 0x3e, 0x3d, 0xaf, 0x8e, 0x3d, 0xa8, 0xca, 0xa3, 0xbe,
  0x33, 0x33, 0x82, 0x3e, 0x1b, 0x23, 0xbb, 0xbe, 0x20, 0x27, 0xf3, 0x3e,
  0x94, 0x26, 0x48, 0xbe, 0x44, 0x8f, 0xaf, 0x3e, 0x25, 0xa3, 0x55, 0x3e,
  0xf6, 0x64, 0xbc, 0x3e, 0xaf, 0xf2, 0x85, 0x3e, 0xba, 0x18, 0x27, 0xbc,
  0x5e, 0x92, 0xcc, 0xbe, 0xc4, 0xac, 0x18, 0xbe, 0xb0, 0x4a, 0x00, 0xbd,
  0x98, 0x78, 0x58, 0x3d, 0xbb, 0xf1, 0xb3, 0x3d, 0xf0, 0x18, 0xa7, 0xbc,
  0x67, 0xc1, 0x2c, 0xbe, 0x63, 0xdf, 0x10, 0x3d, 0xcd, 0x91, 0xef, 0x3e,
  0xcf, 0x84, 0x96, 0x3e, 0x7b, 0xfb, 0x2a, 0x3e, 0x47, 0x7e, 0x2e, 0xbd,
  0x76, 0x3a, 0xe4, 0x3e, 0xd2, 0xd4, 0x53, 0x3c, 0x1d, 0xef, 0x58, 0x3e,
  0x22, 0xa0, 0xe0, 0x3e, 0xab, 0xaa, 0x6e, 0xbe, 0x74, 0xed, 0xbc, 0xbe,
  0xee, 0x2a, 0xfb, 0xbc, 0x20, 0x20, 0x99, 0x3e, 0xe6, 0xda, 0xcc, 0xbe,
  0x40, 0xd9, 0xbf, 0xbe, 0x3a, 0x80, 0x89, 0x3e, 0xb4, 0x7b, 0x37, 0xbe,
  0xe2, 0xf3, 0x18, 0xbd, 0x2e, 0x8d, 0xb7, 0xbe, 0x27, 0x76, 0x5c, 0x3d,
  0x01, 0xb3, 0x2a, 0xbe, 0xc6, 0x93, 0x04, 0x3e, 0xfc, 0x6c, 0xca, 0xbe,
  0xf9, 0x90, 0x3f, 0x3e, 0x01, 0x76, 0xe4, 0x3e, 0x98, 0x9c, 0x26, 0x3d,
  0x1a, 0x4b, 0xc4, 0xbd, 0x8a, 0xd5, 0x39, 0x3e, 0x96, 0x00, 0xb3, 0xbe,
  0x84, 0x79, 0x80, 0x3e, 0x9f, 0x95, 0x49, 0x3e, 0x34, 0xb4, 0x89, 0xbe,
  0x78, 0xf1, 0xe2, 0x3e, 0xc9, 0x81, 0x20, 0xbe, 0x70, 0x06, 0xb1, 0x3e,
  0x21, 0x55, 0xef, 0xbe, 0xa7, 0xc2, 0x69, 0xbd, 0x56, 0xfc, 0xff, 0xff,
  0x04, 0x00, 0x00, 0x00, 0x10, 0x00, 0x00, 0x00, 0xb9, 0xb2, 0xcf, 0x3f,
  0xee, 0x9d, 0x01, 0x40, 0x14, 0x00, 0xde, 0xbe, 0x22, 0x02, 0xa1, 0xbd,
  0x72, 0xfc, 0xff, 0xff, 0x04, 0x00, 0x00, 0x00, 0x04, 0x00, 0x00, 0x00,
  0x00, 0x00, 0x80, 0x3f, 0x82, 0xfc, 0xff, 0xff, 0x04, 0x00, 0x00, 0x00,
  0x08, 0x00, 0x00, 0x00, 0x04, 0x00, 0x00, 0x00, 0x04, 0x00, 0x00, 0x00,
  0x96, 0xfc, 0xff, 0xff, 0x04, 0x00, 0x00, 0x00, 0x04, 0x00, 0x00, 0x00,
  0x6f, 0x12, 0x83, 0x3a, 0xa6, 0xfc, 0xff, 0xff, 0x04, 0x00, 0x00, 0x00,
  0x04, 0x00, 0x00, 0x00, 0x01, 0x00, 0x00, 0x00, 0xb6, 0xfc, 0xff, 0xff,
  0x04, 0x00, 0x00, 0x00, 0x34, 0x00, 0x00, 0x00, 0xe2, 0x7f, 0x97, 0x3b,
  0x92, 0x3a, 0x56, 0x3b, 0xb7, 0x97, 0xe7, 0x3d, 0x69, 0x9b, 0x79, 0x3f,
  0x7c, 0x50, 0xac, 0xba, 0x8c, 0xda, 0x93, 0x3b, 0x74, 0x03, 0xbd, 0xbb,
  0xa4, 0x3d, 0x46, 0x3d, 0xf5, 0xbe, 0x88, 0x3c, 0x9a, 0xbe, 0x04, 0x3e,
  0xa9, 0xc6, 0x32, 0x3e, 0xf9, 0x56, 0x56, 0xbf, 0xd2, 0x45, 0x76, 0xb9,
  0x18, 0xe2, 0xff, 0xff, 0x1c, 0xe2, 0xff, 0xff, 0x0f, 0x00, 0x00, 0x00,
  0x4d, 0x4c, 0x49, 0x52, 0x20, 0x43, 0x6f, 0x6e, 0x76, 0x65, 0x72, 0x74,
  0x65, 0x64, 0x2e, 0x00, 0x01, 0x00, 0x00, 0x00, 0x14, 0x00, 0x00, 0x00,
  0x00, 0x00, 0x0e, 0x00, 0x18, 0x00, 0x14, 0x00, 0x10, 0x00, 0x0c, 0x00,
  0x08, 0x00, 0x04, 0x00, 0x0e, 0x00, 0x00, 0x00, 0x14, 0x00, 0x00, 0x00,
  0x1c, 0x00, 0x00, 0x00, 0xd8, 0x05, 0x00, 0x00, 0xdc, 0x05, 0x00, 0x00,
  0xe0, 0x05, 0x00, 0x00, 0x04, 0x00, 0x00, 0x00, 0x6d, 0x61, 0x69, 0x6e,
  0x00, 0x00, 0x00, 0x00, 0x1d, 0x00, 0x00, 0x00, 0x90, 0x05, 0x00, 0x00,
  0x4c, 0x05, 0x00, 0x00, 0x04, 0x05, 0x00, 0x00, 0xe0, 0x04, 0x00, 0x00,
  0xa0, 0x04, 0x00, 0x00, 0x58, 0x04, 0x00, 0x00, 0x34, 0x04, 0x00, 0x00,
  0x00, 0x04, 0x00, 0x00, 0xc4, 0x03, 0x00, 0x00, 0xa0, 0x03, 0x00, 0x00,
  0x6c, 0x03, 0x00, 0x00, 0x30, 0x03, 0x00, 0x00, 0x0c, 0x03, 0x00, 0x00,
  0xd8, 0x02, 0x00, 0x00, 0xa0, 0x02, 0x00, 0x00, 0x58, 0x02, 0x00, 0x00,
  0x34, 0x02, 0x00, 0x00, 0x10, 0x02, 0x00, 0x00, 0xe0, 0x01, 0x00, 0x00,
  0xb0, 0x01, 0x00, 0x00, 0x7c, 0x01, 0x00, 0x00, 0x58, 0x01, 0x00, 0x00,
  0x24, 0x01, 0x00, 0x00, 0xfc, 0x00, 0x00, 0x00, 0xc4, 0x00, 0x00, 0x00,
  0x90, 0x00, 0x00, 0x00, 0x5c, 0x00, 0x00, 0x00, 0x28, 0x00, 0x00, 0x00,
  0x04, 0x00, 0x00, 0x00, 0x92, 0xfb, 0xff, 0xff, 0x0c, 0x00, 0x00, 0x00,
  0x10, 0x00, 0x00, 0x00, 0x0d, 0x00, 0x00, 0x00, 0x01, 0x00, 0x00, 0x00,
  0x2f, 0x00, 0x00, 0x00, 0x01, 0x00, 0x00, 0x00, 0x2e, 0x00, 0x00, 0x00,
  0x52, 0xfb, 0xff, 0xff, 0x14, 0x00, 0x00, 0x00, 0x00, 0x00, 0x00, 0x0b,
  0x10, 0x00, 0x00, 0x00, 0x14, 0x00, 0x00, 0x00, 0x09, 0x00, 0x00, 0x00,
  0x20, 0xe3, 0xff, 0xff, 0x01, 0x00, 0x00, 0x00, 0x2e, 0x00, 0x00, 0x00,
  0x02, 0x00, 0x00, 0x00, 0x2d, 0x00, 0x00, 0x00, 0x21, 0x00, 0x00, 0x00,
  0x82, 0xfb, 0xff, 0xff, 0x14, 0x00, 0x00, 0x00, 0x00, 0x00, 0x00, 0x15,
  0x10, 0x00, 0x00, 0x00, 0x14, 0x00, 0x00, 0x00, 0x01, 0x00, 0x00, 0x00,
  0x50, 0xe3, 0xff, 0xff, 0x01, 0x00, 0x00, 0x00, 0x2d, 0x00, 0x00, 0x00,
  0x02, 0x00, 0x00, 0x00, 0x2c, 0x00, 0x00, 0x00, 0x06, 0x00, 0x00, 0x00,
  0xb2, 0xfb, 0xff, 0xff, 0x14, 0x00, 0x00, 0x00, 0x00, 0x00, 0x00, 0x0b,
  0x10, 0x00, 0x00, 0x00, 0x14, 0x00, 0x00, 0x00, 0x09, 0x00, 0x00, 0x00,
  0x80, 0xe3, 0xff, 0xff, 0x01, 0x00, 0x00, 0x00, 0x2c, 0x00, 0x00, 0x00,
  0x02, 0x00, 0x00, 0x00, 0x2b, 0x00, 0x00, 0x00, 0x03, 0x00, 0x00, 0x00,
  0xe2, 0xfb, 0xff, 0xff, 0x14, 0x00, 0x00, 0x00, 0x00, 0x00, 0x00, 0x2f,
  0x10, 0x00, 0x00, 0x00, 0x14, 0x00, 0x00, 0x00, 0x0c, 0x00, 0x00, 0x00,
  0xb0, 0xe3, 0xff, 0xff, 0x01, 0x00, 0x00, 0x00, 0x2b, 0x00, 0x00, 0x00,
  0x03, 0x00, 0x00, 0x00, 0x2a, 0x00, 0x00, 0x00, 0x22, 0x00, 0x00, 0x00,
  0x29, 0x00, 0x00, 0x00, 0x76, 0xfc, 0xff, 0xff, 0x0c, 0x00, 0x00, 0x00,
  0x10, 0x00, 0x00, 0x00, 0x0b, 0x00, 0x00, 0x00, 0x01, 0x00, 0x00, 0x00,
  0x2a, 0x00, 0x00, 0x00, 0x02, 0x00, 0x00, 0x00, 0x22, 0x00, 0x00, 0x00,
  0x22, 0x00, 0x00, 0x00, 0x3a, 0xfc, 0xff, 0xff, 0x14, 0x00, 0x00, 0x00,
  0x00, 0x00, 0x00, 0x0b, 0x10, 0x00, 0x00, 0x00, 0x14, 0x00, 0x00, 0x00,
  0x09, 0x00, 0x00, 0x00, 0x08, 0xe4, 0xff, 0xff, 0x01, 0x00, 0x00, 0x00,
  0x29, 0x00, 0x00, 0x00, 0x02, 0x00, 0x00, 0x00, 0x23, 0x00, 0x00, 0x00,
  0x28, 0x00, 0x00, 0x00, 0xca, 0xfc, 0xff, 0xff, 0x0c, 0x00, 0x00, 0x00,
  0x10, 0x00, 0x00, 0x00, 0x0a, 0x00, 0x00, 0x00, 0x01, 0x00, 0x00, 0x00,
  0x28, 0x00, 0x00, 0x00, 0x01, 0x00, 0x00, 0x00, 0x27, 0x00, 0x00, 0x00,
  0x8a, 0xfc, 0xff, 0xff, 0x14, 0x00, 0x00, 0x00, 0x00, 0x00, 0x00, 0x0b,
  0x10, 0x00, 0x00, 0x00, 0x14, 0x00, 0x00, 0x00, 0x09, 0x00, 0x00, 0x00,
  0x58, 0xe4, 0xff, 0xff, 0x01, 0x00, 0x00, 0x00, 0x27, 0x00, 0x00, 0x00,
  0x02, 0x00, 0x00, 0x00, 0x26, 0x00, 0x00, 0x00, 0x05, 0x00, 0x00, 0x00,
  0xba, 0xfc, 0xff, 0xff, 0x14, 0x00, 0x00, 0x00, 0x00, 0x00, 0x00, 0x21,
  0x10, 0x00, 0x00, 0x00, 0x14, 0x00, 0x00, 0x00, 0x08, 0x00, 0x00, 0x00,
  0x88, 0xe4, 0xff, 0xff, 0x01, 0x00, 0x00, 0x00, 0x26, 0x00, 0x00, 0x00,
  0x01, 0x00, 0x00, 0x00, 0x25, 0x00, 0x00, 0x00, 0xe6, 0xfc, 0xff, 0xff,
  0x14, 0x00, 0x00, 0x00, 0x00, 0x00, 0x00, 0x2a, 0x10, 0x00, 0x00, 0x00,
  0x14, 0x00, 0x00, 0x00, 0x07, 0x00, 0x00, 0x00, 0xb4, 0xe4, 0xff, 0xff,
  0x01, 0x00, 0x00, 0x00, 0x25, 0x00, 0x00, 0x00, 0x01, 0x00, 0x00, 0x00,
  0x24, 0x00, 0x00, 0x00, 0x72, 0xfd, 0xff, 0xff, 0x0c, 0x00, 0x00, 0x00,
  0x10, 0x00, 0x00, 0x00, 0x06, 0x00, 0x00, 0x00, 0x01, 0x00, 0x00, 0x00,
  0x24, 0x00, 0x00, 0x00, 0x01, 0x00, 0x00, 0x00, 0x22, 0x00, 0x00, 0x00,
  0x92, 0xfd, 0xff, 0xff, 0x0c, 0x00, 0x00, 0x00, 0x10, 0x00, 0x00, 0x00,
  0x05, 0x00, 0x00, 0x00, 0x01, 0x00, 0x00, 0x00, 0x23, 0x00, 0x00, 0x00,
  0x01, 0x00, 0x00, 0x00, 0x22, 0x00, 0x00, 0x00, 0x52, 0xfd, 0xff, 0xff,
  0x1c, 0x00, 0x00, 0x00, 0x00, 0x00, 0x00, 0x4f, 0x1c, 0x00, 0x00, 0x00,
  0x24, 0x00, 0x00, 0x00, 0x04, 0x00, 0x00, 0x00, 0x00, 0x00, 0x06, 0x00,
  0x08, 0x00, 0x04, 0x00, 0x06, 0x00, 0x00, 0x00, 0x02, 0x00, 0x00, 0x00,
  0x02, 0x00, 0x00, 0x00, 0x21, 0x00, 0x00, 0x00, 0x22, 0x00, 0x00, 0x00,
  0x03, 0x00, 0x00, 0x00, 0x20, 0x00, 0x00, 0x00, 0x04, 0x00, 0x00, 0x00,
  0x02, 0x00, 0x00, 0x00, 0x96, 0xfd, 0xff, 0xff, 0x14, 0x00, 0x00, 0x00,
  0x00, 0x00, 0x00, 0x08, 0x10, 0x00, 0x00, 0x00, 0x14, 0x00, 0x00, 0x00,
  0x02, 0x00, 0x00, 0x00, 0x64, 0xe5, 0xff, 0xff, 0x01, 0x00, 0x00, 0x00,
  0x20, 0x00, 0x00, 0x00, 0x03, 0x00, 0x00, 0x00, 0x1f, 0x00, 0x00, 0x00,
  0x0e, 0x00, 0x00, 0x00, 0x08, 0x00, 0x00, 0x00, 0xca, 0xfd, 0xff, 0xff,
  0x14, 0x00, 0x00, 0x00, 0x00, 0x00, 0x00, 0x15, 0x10, 0x00, 0x00, 0x00,
  0x14, 0x00, 0x00, 0x00, 0x01, 0x00, 0x00, 0x00, 0x98, 0xe5, 0xff, 0xff,
  0x01, 0x00, 0x00, 0x00, 0x1f, 0x00, 0x00, 0x00, 0x02, 0x00, 0x00, 0x00,
  0x1d, 0x00, 0x00, 0x00, 0x1e, 0x00, 0x00, 0x00, 0x5a, 0xfe, 0xff, 0xff,
  0x0c, 0x00, 0x00, 0x00, 0x10, 0x00, 0x00, 0x00, 0x03, 0x00, 0x00, 0x00,
  0x01, 0x00, 0x00, 0x00, 0x1e, 0x00, 0x00, 0x00, 0x01, 0x00, 0x00, 0x00,
  0x1d, 0x00, 0x00, 0x00, 0x1a, 0xfe, 0xff, 0xff, 0x14, 0x00, 0x00, 0x00,
  0x00, 0x00, 0x00, 0x08, 0x14, 0x00, 0x00, 0x00, 0x18, 0x00, 0x00, 0x00,
  0x02, 0x00, 0x00, 0x00, 0xf0, 0xfe, 0xff, 0xff, 0x00, 0x00, 0x00, 0x01,
  0x01, 0x00, 0x00, 0x00, 0x1d, 0x00, 0x00, 0x00, 0x03, 0x00, 0x00, 0x00,
  0x1c, 0x00, 0x00, 0x00, 0x0f, 0x00, 0x00, 0x00, 0x09, 0x00, 0x00, 0x00,
  0x52, 0xfe, 0xff, 0xff, 0x14, 0x00, 0x00, 0x00, 0x00, 0x00, 0x00, 0x15,
  0x10, 0x00, 0x00, 0x00, 0x14, 0x00, 0x00, 0x00, 0x01, 0x00, 0x00, 0x00,
  0x20, 0xe6, 0xff, 0xff, 0x01, 0x00, 0x00, 0x00, 0x1c, 0x00, 0x00, 0x00,
  0x02, 0x00, 0x00, 0x00, 0x1a, 0x00, 0x00, 0x00, 0x1b, 0x00, 0x00, 0x00,
  0xe2, 0xfe, 0xff, 0xff, 0x0c, 0x00, 0x00, 0x00, 0x10, 0x00, 0x00, 0x00,
  0x03, 0x00, 0x00, 0x00, 0x01, 0x00, 0x00, 0x00, 0x1b, 0x00, 0x00, 0x00,
  0x01, 0x00, 0x00, 0x00, 0x1a, 0x00, 0x00, 0x00, 0xa2, 0xfe, 0xff, 0xff,
  0x14, 0x00, 0x00, 0x00, 0x00, 0x00, 0x00, 0x08, 0x14, 0x00, 0x00, 0x00,
  0x18, 0x00, 0x00, 0x00, 0x02, 0x00, 0x00, 0x00, 0x78, 0xff, 0xff, 0xff,
  0x00, 0x00, 0x00, 0x01, 0x01, 0x00, 0x00, 0x00, 0x1a, 0x00, 0x00, 0x00,
  0x03, 0x00, 0x00, 0x00, 0x19, 0x00, 0x00, 0x00, 0x10, 0x00, 0x00, 0x00,
  0x0a, 0x00, 0x00, 0x00, 0xda, 0xfe, 0xff, 0xff, 0x14, 0x00, 0x00, 0x00,
  0x00, 0x00, 0x00, 0x15, 0x10, 0x00, 0x00, 0x00, 0x14, 0x00, 0x00, 0x00,
  0x01, 0x00, 0x00, 0x00, 0xa8, 0xe6, 0xff, 0xff, 0x01, 0x00, 0x00, 0x00,
  0x19, 0x00, 0x00, 0x00, 0x02, 0x00, 0x00, 0x00, 0x17, 0x00, 0x00, 0x00,
  0x18, 0x00, 0x00, 0x00, 0x6a, 0xff, 0xff, 0xff, 0x0c, 0x00, 0x00, 0x00,
  0x10, 0x00, 0x00, 0x00, 0x03, 0x00, 0x00, 0x00, 0x01, 0x00, 0x00, 0x00,
  0x18, 0x00, 0x00, 0x00, 0x01, 0x00, 0x00, 0x00, 0x17, 0x00, 0x00, 0x00,
  0x2a, 0xff, 0xff, 0xff, 0x20, 0x00, 0x00, 0x00, 0x00, 0x00, 0x00, 0x08,
  0x20, 0x00, 0x00, 0x00, 0x24, 0x00, 0x00, 0x00, 0x02, 0x00, 0x00, 0x00,
  0x0c, 0x00, 0x08, 0x00, 0x00, 0x00, 0x00, 0x00, 0x00, 0x00, 0x07, 0x00,
  0x0c, 0x00, 0x00, 0x00, 0x00, 0x00, 0x00, 0x01, 0x01, 0x00, 0x00, 0x00,
  0x17, 0x00, 0x00, 0x00, 0x03, 0x00, 0x00, 0x00, 0x16, 0x00, 0x00, 0x00,
  0x11, 0x00, 0x00, 0x00, 0x0b, 0x00, 0x00, 0x00, 0x6e, 0xff, 0xff, 0xff,
  0x14, 0x00, 0x00, 0x00, 0x00, 0x00, 0x00, 0x15, 0x10, 0x00, 0x00, 0x00,
  0x14, 0x00, 0x00, 0x00, 0x01, 0x00, 0x00, 0x00, 0x3c, 0xe7, 0xff, 0xff,
  0x01, 0x00, 0x00, 0x00, 0x16, 0x00, 0x00, 0x00, 0x02, 0x00, 0x00, 0x00,
  0x14, 0x00, 0x00, 0x00, 0x15, 0x00, 0x00, 0x00, 0x00, 0x00, 0x0a, 0x00,
  0x10, 0x00, 0x0c, 0x00, 0x08, 0x00, 0x04, 0x00, 0x0a, 0x00, 0x00, 0x00,
  0x0c, 0x00, 0x00, 0x00, 0x10, 0x00, 0x00, 0x00, 0x03, 0x00, 0x00, 0x00,
  0x01, 0x00, 0x00, 0x00, 0x15, 0x00, 0x00, 0x00, 0x01, 0x00, 0x00, 0x00,
  0x14, 0x00, 0x00, 0x00, 0xca, 0xff, 0xff, 0xff, 0x14, 0x00, 0x00, 0x00,
  0x00, 0x00, 0x00, 0x08, 0x10, 0x00, 0x00, 0x00, 0x14, 0x00, 0x00, 0x00,
  0x02, 0x00, 0x00, 0x00, 0x98, 0xe7, 0xff, 0xff, 0x01, 0x00, 0x00, 0x00,
  0x14, 0x00, 0x00, 0x00, 0x03, 0x00, 0x00, 0x00, 0x13, 0x00, 0x00, 0x00,
  0x07, 0x00, 0x00, 0x00, 0x0c, 0x00, 0x00, 0x00, 0x00, 0x00, 0x0e, 0x00,
  0x18, 0x00, 0x14, 0x00, 0x10, 0x00, 0x0c, 0x00, 0x0b, 0x00, 0x04, 0x00,
  0x0e, 0x00, 0x00, 0x00, 0x14, 0x00, 0x00, 0x00, 0x00, 0x00, 0x00, 0x15,
  0x10, 0x00, 0x00, 0x00, 0x14, 0x00, 0x00, 0x00, 0x01, 0x00, 0x00, 0x00,
  0xdc, 0xe7, 0xff, 0xff, 0x01, 0x00, 0x00, 0x00, 0x13, 0x00, 0x00, 0x00,
  0x02, 0x00, 0x00, 0x00, 0x12, 0x00, 0x00, 0x00, 0x0d, 0x00, 0x00, 0x00,
  0x00, 0x00, 0x0e, 0x00, 0x14, 0x00, 0x00, 0x00, 0x10, 0x00, 0x0c, 0x00,
  0x0b, 0x00, 0x04, 0x00, 0x0e, 0x00, 0x00, 0x00, 0x10, 0x00, 0x00, 0x00,
  0x00, 0x00, 0x00, 0x1c, 0x0c, 0x00, 0x00, 0x00, 0x10, 0x00, 0x00, 0x00,
  0x18, 0xe8, 0xff, 0xff, 0x01, 0x00, 0x00, 0x00, 0x12, 0x00, 0x00, 0x00,
  0x02, 0x00, 0x00, 0x00, 0x00, 0x00, 0x00, 0x00, 0x01, 0x00, 0x00, 0x00,
  0x01, 0x00, 0x00, 0x00, 0x2f, 0x00, 0x00, 0x00, 0x01, 0x00, 0x00, 0x00,
  0x00, 0x00, 0x00, 0x00, 0x30, 0x00, 0x00, 0x00, 0x18, 0x17, 0x00, 0x00,
  0xc0, 0x16, 0x00, 0x00, 0x84, 0x16, 0x00, 0x00, 0x34, 0x16, 0x00, 0x00,
  0xf4, 0x15, 0x00, 0x00, 0xbc, 0x15, 0x00, 0x00, 0x7c, 0x15, 0x00, 0x00,
  0x3c, 0x15, 0x00, 0x00, 0x00, 0x15, 0x00, 0x00, 0xc4, 0x14, 0x00, 0x00,
  0x88, 0x14, 0x00, 0x00, 0x48, 0x14, 0x00, 0x00, 0x08, 0x14, 0x00, 0x00,
  0xc4, 0x13, 0x00, 0x00, 0x80, 0x13, 0x00, 0x00, 0x98, 0x11, 0x00, 0x00,
  0xc0, 0x0f, 0x00, 0x00, 0xe4, 0x0d, 0x00, 0x00, 0x8c, 0x0d, 0x00, 0x00,
  0x04, 0x0d, 0x00, 0x00, 0x58, 0x0c, 0x00, 0x00, 0x8c, 0x0b, 0x00, 0x00,
  0x34, 0x0b, 0x00, 0x00, 0x88, 0x0a, 0x00, 0x00, 0xb4, 0x09, 0x00, 0x00,
  0x5c, 0x09, 0x00, 0x00, 0xb0, 0x08, 0x00, 0x00, 0xdc, 0x07, 0x00, 0x00,
  0x84, 0x07, 0x00, 0x00, 0xd8, 0x06, 0x00, 0x00, 0x04, 0x06, 0x00, 0x00,
  0xac, 0x05, 0x00, 0x00, 0x00, 0x05, 0x00, 0x00, 0xb8, 0x04, 0x00, 0x00,
  0x6c, 0x04, 0x00, 0x00, 0x10, 0x04, 0x00, 0x00, 0xb8, 0x03, 0x00, 0x00,
  0x60, 0x03, 0x00, 0x00, 0x08, 0x03, 0x00, 0x00, 0xb0, 0x02, 0x00, 0x00,
  0x58, 0x02, 0x00, 0x00, 0xfc, 0x01, 0x00, 0x00, 0x9c, 0x01, 0x00, 0x00,
  0x40, 0x01, 0x00, 0x00, 0xec, 0x00, 0x00, 0x00, 0x94, 0x00, 0x00, 0x00,
  0x40, 0x00, 0x00, 0x00, 0x04, 0x00, 0x00, 0x00, 0xbe, 0xe9, 0xff, 0xff,
  0x00, 0x00, 0x00, 0x01, 0x10, 0x00, 0x00, 0x00, 0x10, 0x00, 0x00, 0x00,
  0x30, 0x00, 0x00, 0x00, 0x18, 0x00, 0x00, 0x00, 0x1c, 0xe9, 0xff, 0xff,
  0x08, 0x00, 0x00, 0x00, 0x49, 0x64, 0x65, 0x6e, 0x74, 0x69, 0x74, 0x79,
  0x00, 0x00, 0x00, 0x00, 0x02, 0x00, 0x00, 0x00, 0x01, 0x00, 0x00, 0x00,
  0x04, 0x00, 0x00, 0x00, 0xf6, 0xe9, 0xff, 0xff, 0x00, 0x00, 0x00, 0x01,
  0x10, 0x00, 0x00, 0x00, 0x10, 0x00, 0x00, 0x00, 0x2f, 0x00, 0x00, 0x00,
  0x30, 0x00, 0x00, 0x00, 0x54, 0xe9, 0xff, 0xff, 0x23, 0x00, 0x00, 0x00,
  0x6a, 0x61, 0x78, 0x32, 0x74, 0x66, 0x5f, 0x70, 0x6f, 0x6c, 0x69, 0x63,
  0x79, 0x5f, 0x66, 0x6e, 0x5f, 0x2f, 0x70, 0x6a, 0x69, 0x74, 0x5f, 0x61,
  0x64, 0x64, 0x5f, 0x2f, 0x41, 0x64, 0x64, 0x56, 0x32, 0x5f, 0x31, 0x00,
  0x02, 0x00, 0x00, 0x00, 0x01, 0x00, 0x00, 0x00, 0x04, 0x00, 0x00, 0x00,
  0x46, 0xea, 0xff, 0xff, 0x00, 0x00, 0x00, 0x01, 0x10, 0x00, 0x00, 0x00,
  0x10, 0x00, 0x00, 0x00, 0x2e, 0x00, 0x00, 0x00, 0x34, 0x00, 0x00, 0x00,
  0xa4, 0xe9, 0xff, 0xff, 0x26, 0x00, 0x00, 0x00, 0x6a, 0x61, 0x78, 0x32,
  0x74, 0x66, 0x5f, 0x70, 0x6f, 0x6c, 0x69, 0x63, 0x79, 0x5f, 0x66, 0x6e,
  0x5f, 0x2f, 0x70, 0x6a, 0x69, 0x74, 0x5f, 0x6d, 0x75, 0x6c, 0x74, 0x69,
  0x70, 0x6c, 0x79, 0x5f, 0x2f, 0x4d, 0x75, 0x6c, 0x5f, 0x31, 0x00, 0x00,
  0x02, 0x00, 0x00, 0x00, 0x01, 0x00, 0x00, 0x00, 0x04, 0x00, 0x00, 0x00,
  0x9a, 0xea, 0xff, 0xff, 0x00, 0x00, 0x00, 0x01, 0x10, 0x00, 0x00, 0x00,
  0x10, 0x00, 0x00, 0x00, 0x2d, 0x00, 0x00, 0x00, 0x30, 0x00, 0x00, 0x00,
  0xf8, 0xe9, 0xff, 0xff, 0x21, 0x00, 0x00, 0x00, 0x6a, 0x61, 0x78, 0x32,
  0x74, 0x66, 0x5f, 0x70, 0x6f, 0x6c, 0x69, 0x63, 0x79, 0x5f, 0x66, 0x6e,
  0x5f, 0x2f, 0x70, 0x6a, 0x69, 0x74, 0x5f, 0x61, 0x64, 0x64, 0x5f, 0x2f,
  0x41, 0x64, 0x64, 0x56, 0x32, 0x00, 0x00, 0x00, 0x02, 0x00, 0x00, 0x00,
  0x01, 0x00, 0x00, 0x00, 0x04, 0x00, 0x00, 0x00, 0xea, 0xea, 0xff, 0xff,
  0x00, 0x00, 0x00, 0x01, 0x10, 0x00, 0x00, 0x00, 0x10, 0x00, 0x00, 0x00,
  0x2c, 0x00, 0x00, 0x00, 0x38, 0x00, 0x00, 0x00, 0x48, 0xea, 0xff, 0xff,
  0x29, 0x00, 0x00, 0x00, 0x6a, 0x61, 0x78, 0x32, 0x74, 0x66, 0x5f, 0x70,
  0x6f, 0x6c, 0x69, 0x63, 0x79, 0x5f, 0x66, 0x6e, 0x5f, 0x2f, 0x70, 0x6a,
  0x69, 0x74, 0x5f, 0x73, 0x6f, 0x66, 0x74, 0x70, 0x6c, 0x75, 0x73, 0x5f,
  0x2f, 0x53, 0x65, 0x6c, 0x65, 0x63, 0x74, 0x56, 0x32, 0x00, 0x00, 0x00,
  0x02, 0x00, 0x00, 0x00, 0x01, 0x00, 0x00, 0x00, 0x04, 0x00, 0x00, 0x00,
  0xce, 0xeb, 0xff, 0xff, 0x00, 0x00, 0x00, 0x01, 0x14, 0x00, 0x00, 0x00,
  0x14, 0x00, 0x00, 0x00, 0x2b, 0x00, 0x00, 0x00, 0x00, 0x00, 0x00, 0x06,
  0x38, 0x00, 0x00, 0x00, 0xa4, 0xea, 0xff, 0xff, 0x29, 0x00, 0x00, 0x00,
  0x6a, 0x61, 0x78, 0x32, 0x74, 0x66, 0x5f, 0x70, 0x6f, 0x6c, 0x69, 0x63,
  0x79, 0x5f, 0x66, 0x6e, 0x5f, 0x2f, 0x70, 0x6a, 0x69, 0x74, 0x5f, 0x73,
  0x6f, 0x66, 0x74, 0x70, 0x6c, 0x75, 0x73, 0x5f, 0x2f, 0x4e, 0x6f, 0x74,
  0x45, 0x71, 0x75, 0x61, 0x6c, 0x00, 0x00, 0x00, 0x02, 0x00, 0x00, 0x00,
  0x01, 0x00, 0x00, 0x00, 0x04, 0x00, 0x00, 0x00, 0x9e, 0xeb, 0xff, 0xff,
  0x00, 0x00, 0x00, 0x01, 0x10, 0x00, 0x00, 0x00, 0x10, 0x00, 0x00, 0x00,
  0x2a, 0x00, 0x00, 0x00, 0x38, 0x00, 0x00, 0x00, 0xfc, 0xea, 0xff, 0xff,
  0x28, 0x00, 0x00, 0x00, 0x6a, 0x61, 0x78, 0x32, 0x74, 0x66, 0x5f, 0x70,
  0x6f, 0x6c, 0x69, 0x63, 0x79, 0x5f, 0x66, 0x6e, 0x5f, 0x2f, 0x70, 0x6a,
  0x69, 0x74, 0x5f, 0x73, 0x6f, 0x66, 0x74, 0x70, 0x6c, 0x75, 0x73, 0x5f,
  0x2f, 0x41, 0x64, 0x64, 0x56, 0x32, 0x5f, 0x31, 0x00, 0x00, 0x00, 0x00,
  0x02, 0x00, 0x00, 0x00, 0x01, 0x00, 0x00, 0x00, 0x04, 0x00, 0x00, 0x00,
  0xf6, 0xeb, 0xff, 0xff, 0x00, 0x00, 0x00, 0x01, 0x10, 0x00, 0x00, 0x00,
  0x10, 0x00, 0x00, 0x00, 0x29, 0x00, 0x00, 0x00, 0x34, 0x00, 0x00, 0x00,
  0x54, 0xeb, 0xff, 0xff, 0x27, 0x00, 0x00, 0x00, 0x6a, 0x61, 0x78, 0x32,
  0x74, 0x66, 0x5f, 0x70, 0x6f, 0x6c, 0x69, 0x63, 0x79, 0x5f, 0x66, 0x6e,
  0x5f, 0x2f, 0x70, 0x6a, 0x69, 0x74, 0x5f, 0x73, 0x6f, 0x66, 0x74, 0x70,
  0x6c, 0x75, 0x73, 0x5f, 0x2f, 0x4c, 0x6f, 0x67, 0x31, 0x70, 0x31, 0x00,
  0x02, 0x00, 0x00, 0x00, 0x01, 0x00, 0x00, 0x00, 0x04, 0x00, 0x00, 0x00,
  0x4a, 0xec, 0xff, 0xff, 0x00, 0x00, 0x00, 0x01, 0x10, 0x00, 0x00, 0x00,
  0x10, 0x00, 0x00, 0x00, 0x28, 0x00, 0x00, 0x00, 0x34, 0x00, 0x00, 0x00,
  0xa8, 0xeb, 0xff, 0xff, 0x26, 0x00, 0x00, 0x00, 0x6a, 0x61, 0x78, 0x32,
  0x74, 0x66, 0x5f, 0x70, 0x6f, 0x6c, 0x69, 0x63, 0x79, 0x5f, 0x66, 0x6e,
  0x5f, 0x2f, 0x70, 0x6a, 0x69, 0x74, 0x5f, 0x73, 0x6f, 0x66, 0x74, 0x70,
  0x6c, 0x75, 0x73, 0x5f, 0x2f, 0x4c, 0x6f, 0x67, 0x31, 0x70, 0x00, 0x00,
  0x02, 0x00, 0x00, 0x00, 0x01, 0x00, 0x00, 0x00, 0x04, 0x00, 0x00, 0x00,
  0x9e, 0xec, 0xff, 0xff, 0x00, 0x00, 0x00, 0x01, 0x10, 0x00, 0x00, 0x00,
  0x10, 0x00, 0x00, 0x00, 0x27, 0x00, 0x00, 0x00, 0x34, 0x00, 0x00, 0x00,
  0xfc, 0xeb, 0xff, 0xff, 0x24, 0x00, 0x00, 0x00, 0x6a, 0x61, 0x78, 0x32,
  0x74, 0x66, 0x5f, 0x70, 0x6f, 0x6c, 0x69, 0x63, 0x79, 0x5f, 0x66, 0x6e,
  0x5f, 0x2f, 0x70, 0x6a, 0x69, 0x74, 0x5f, 0x73, 0x6f, 0x66, 0x74, 0x70,
  0x6c, 0x75, 0x73, 0x5f, 0x2f, 0x45, 0x78, 0x70, 0x00, 0x00, 0x00, 0x00,
  0x02, 0x00, 0x00, 0x00, 0x01, 0x00, 0x00, 0x00, 0x04, 0x00, 0x00, 0x00,
  0xf2, 0xec, 0xff, 0xff, 0x00, 0x00, 0x00, 0x01, 0x10, 0x00, 0x00, 0x00,
  0x10, 0x00, 0x00, 0x00, 0x26, 0x00, 0x00, 0x00, 0x34, 0x00, 0x00, 0x00,
  0x50, 0xec, 0xff, 0xff, 0x24, 0x00, 0x00, 0x00, 0x6a, 0x61, 0x78, 0x32,
  0x74, 0x66, 0x5f, 0x70, 0x6f, 0x6c, 0x69, 0x63, 0x79, 0x5f, 0x66, 0x6e,
  0x5f, 0x2f, 0x70, 0x6a, 0x69, 0x74, 0x5f, 0x73, 0x6f, 0x66, 0x74, 0x70,
  0x6c, 0x75, 0x73, 0x5f, 0x2f, 0x4e, 0x65, 0x67, 0x00, 0x00, 0x00, 0x00,
  0x02, 0x00, 0x00, 0x00, 0x01, 0x00, 0x00, 0x00, 0x04, 0x00, 0x00, 0x00,
  0x46, 0xed, 0xff, 0xff, 0x00, 0x00, 0x00, 0x01, 0x10, 0x00, 0x00, 0x00,
  0x10, 0x00, 0x00, 0x00, 0x25, 0x00, 0x00, 0x00, 0x34, 0x00, 0x00, 0x00,
  0xa4, 0xec, 0xff, 0xff, 0x24, 0x00, 0x00, 0x00, 0x6a, 0x61, 0x78, 0x32,
  0x74, 0x66, 0x5f, 0x70, 0x6f, 0x6c, 0x69, 0x63, 0x79, 0x5f, 0x66, 0x6e,
  0x5f, 0x2f, 0x70, 0x6a, 0x69, 0x74, 0x5f, 0x73, 0x6f, 0x66, 0x74, 0x70,
  0x6c, 0x75, 0x73, 0x5f, 0x2f, 0x41, 0x62, 0x73, 0x00, 0x00, 0x00, 0x00,
  0x02, 0x00, 0x00, 0x00, 0x01, 0x00, 0x00, 0x00, 0x04, 0x00, 0x00, 0x00,
  0x9a, 0xed, 0xff, 0xff, 0x00, 0x00, 0x00, 0x01, 0x10, 0x00, 0x00, 0x00,
  0x10, 0x00, 0x00, 0x00, 0x24, 0x00, 0x00, 0x00, 0x38, 0x00, 0x00, 0x00,
  0xf8, 0xec, 0xff, 0xff, 0x28, 0x00, 0x00, 0x00, 0x6a, 0x61, 0x78, 0x32,
  0x74, 0x66, 0x5f, 0x70, 0x6f, 0x6c, 0x69, 0x63, 0x79, 0x5f, 0x66, 0x6e,
  0x5f, 0x2f, 0x70, 0x6a, 0x69, 0x74, 0x5f, 0x73, 0x6f, 0x66, 0x74, 0x70,
  0x6c, 0x75, 0x73, 0x5f, 0x2f, 0x4d, 0x61, 0x78, 0x69, 0x6d, 0x75, 0x6d,
  0x00, 0x00, 0x00, 0x00, 0x02, 0x00, 0x00, 0x00, 0x01, 0x00, 0x00, 0x00,
  0x04, 0x00, 0x00, 0x00, 0xf2, 0xed, 0xff, 0xff, 0x00, 0x00, 0x00, 0x01,
  0x10, 0x00, 0x00, 0x00, 0x10, 0x00, 0x00, 0x00, 0x23, 0x00, 0x00, 0x00,
  0x28, 0x00, 0x00, 0x00, 0x50, 0xed, 0xff, 0xff, 0x18, 0x00, 0x00, 0x00,
  0x6a, 0x61, 0x78, 0x32, 0x74, 0x66, 0x5f, 0x70, 0x6f, 0x6c, 0x69, 0x63,
  0x79, 0x5f, 0x66, 0x6e, 0x5f, 0x2f, 0x73, 0x70, 0x6c, 0x69, 0x74, 0x31,
  0x00, 0x00, 0x00, 0x00, 0x02, 0x00, 0x00, 0x00, 0x01, 0x00, 0x00, 0x00,
  0x04, 0x00, 0x00, 0x00, 0x3a, 0xee, 0xff, 0xff, 0x00, 0x00, 0x00, 0x01,
  0x10, 0x00, 0x00, 0x00, 0x10, 0x00, 0x00, 0x00, 0x22, 0x00, 0x00, 0x00,
  0x24, 0x00, 0x00, 0x00, 0x98, 0xed, 0xff, 0xff, 0x17, 0x00, 0x00, 0x00,
  0x6a, 0x61, 0x78, 0x32, 0x74, 0x66, 0x5f, 0x70, 0x6f, 0x6c, 0x69, 0x63,
  0x79, 0x5f, 0x66, 0x6e, 0x5f, 0x2f, 0x73, 0x70, 0x6c, 0x69, 0x74, 0x00,
  0x02, 0x00, 0x00, 0x00, 0x01, 0x00, 0x00, 0x00, 0x04, 0x00, 0x00, 0x00,
  0x7e, 0xee, 0xff, 0xff, 0x00, 0x00, 0x00, 0x01, 0x10, 0x00, 0x00, 0x00,
  0x10, 0x00, 0x00, 0x00, 0x21, 0x00, 0x00, 0x00, 0x88, 0x00, 0x00, 0x00,
  0xdc, 0xed, 0xff, 0xff, 0x7b, 0x00, 0x00, 0x00, 0x6a, 0x61, 0x78, 0x32,
  0x74, 0x66, 0x5f, 0x70, 0x6f, 0x6c, 0x69, 0x63, 0x79, 0x5f, 0x66, 0x6e,
  0x5f, 0x2f, 0x4d, 0x4c, 0x50, 0x2f, 0x68, 0x69, 0x64, 0x64, 0x65, 0x6e,
  0x5f, 0x34, 0x2f, 0x4d, 0x61, 0x74, 0x4d, 0x75, 0x6c, 0x3b, 0x6a, 0x61,
  0x78, 0x32, 0x74, 0x66, 0x5f, 0x70, 0x6f, 0x6c, 0x69, 0x63, 0x79, 0x5f,
  0x66, 0x6e, 0x5f, 0x2f, 0x4d, 0x4c, 0x50, 0x2f, 0x68, 0x69, 0x64, 0x64,
  0x65, 0x6e, 0x5f, 0x34, 0x2f, 0x70, 0x6a, 0x69, 0x74, 0x5f, 0x61, 0x64,
  0x64, 0x5f, 0x2f, 0x41, 0x64, 0x64, 0x56, 0x32, 0x3b, 0x6a, 0x61, 0x78,
  0x32, 0x74, 0x66, 0x5f, 0x70, 0x6f, 0x6c, 0x69, 0x63, 0x79, 0x5f, 0x66,
  0x6e, 0x5f, 0x2f, 0x4d, 0x4c, 0x50, 0x2f, 0x68, 0x69, 0x64, 0x64, 0x65,
  0x6e, 0x5f, 0x34, 0x2f, 0x52, 0x65, 0x73, 0x68, 0x61, 0x70, 0x65, 0x00,
  0x02, 0x00, 0x00, 0x00, 0x01, 0x00, 0x00, 0x00, 0x08, 0x00, 0x00, 0x00,
  0x26, 0xef, 0xff, 0xff, 0x00, 0x00, 0x00, 0x01, 0x10, 0x00, 0x00, 0x00,
  0x10, 0x00, 0x00, 0x00, 0x20, 0x00, 0x00, 0x00, 0x34, 0x00, 0x00, 0x00,
  0x84, 0xee, 0xff, 0xff, 0x26, 0x00, 0x00, 0x00, 0x6a, 0x61, 0x78, 0x32,
  0x74, 0x66, 0x5f, 0x70, 0x6f, 0x6c, 0x69, 0x63, 0x79, 0x5f, 0x66, 0x6e,
  0x5f, 0x2f, 0x4d, 0x4c, 0x50, 0x2f, 0x70, 0x6a, 0x69, 0x74, 0x5f, 0x73,
  0x69, 0x6c, 0x75, 0x5f, 0x2f, 0x4d, 0x75, 0x6c, 0x5f, 0x33, 0x00, 0x00,
  0x02, 0x00, 0x00, 0x00, 0x01, 0x00, 0x00, 0x00, 0x20, 0x00, 0x00, 0x00,
  0x7a, 0xef, 0xff, 0xff, 0x00, 0x00, 0x00, 0x01, 0x10, 0x00, 0x00, 0x00,
  0x10, 0x00, 0x00, 0x00, 0x1f, 0x00, 0x00, 0x00, 0xb0, 0x00, 0x00, 0x00,
  0xd8, 0xee, 0xff, 0xff, 0xa1, 0x00, 0x00, 0x00, 0x6a, 0x61, 0x78, 0x32,
  0x74, 0x66, 0x5f, 0x70, 0x6f, 0x6c, 0x69, 0x63, 0x79, 0x5f, 0x66, 0x6e,
  0x5f, 0x2f, 0x4d, 0x4c, 0x50, 0x2f, 0x70, 0x6a, 0x69, 0x74, 0x5f, 0x73,
  0x69, 0x6c, 0x75, 0x5f, 0x2f, 0x74, 0x72, 0x75, 0x65, 0x64, 0x69, 0x76,
  0x5f, 0x33, 0x3b, 0x6a, 0x61, 0x78, 0x32, 0x74, 0x66, 0x5f, 0x70, 0x6f,
  0x6c, 0x69, 0x63, 0x79, 0x5f, 0x66, 0x6e, 0x5f, 0x2f, 0x4d, 0x4c, 0x50,
  0x2f, 0x70, 0x6a, 0x69, 0x74, 0x5f, 0x73, 0x69, 0x6c, 0x75, 0x5f, 0x2f,
  0x4e, 0x65, 0x67, 0x5f, 0x33, 0x3b, 0x6a, 0x61, 0x78, 0x32, 0x74, 0x66,
  0x5f, 0x70, 0x6f, 0x6c, 0x69, 0x63, 0x79, 0x5f, 0x66, 0x6e, 0x5f, 0x2f,
  0x4d, 0x4c, 0x50, 0x2f, 0x70, 0x6a, 0x69, 0x74, 0x5f, 0x73, 0x69, 0x6c,
  0x75, 0x5f, 0x2f, 0x45, 0x78, 0x70, 0x5f, 0x33, 0x3b, 0x6a, 0x61, 0x78,
  0x32, 0x74, 0x66, 0x5f, 0x70, 0x6f, 0x6c, 0x69, 0x63, 0x79, 0x5f, 0x66,
  0x6e, 0x5f, 0x2f, 0x4d, 0x4c, 0x50, 0x2f, 0x70, 0x6a, 0x69, 0x74, 0x5f,
  0x73, 0x69, 0x6c, 0x75, 0x5f, 0x2f, 0x41, 0x64, 0x64, 0x56, 0x32, 0x5f,
  0x33, 0x00, 0x00, 0x00, 0x02, 0x00, 0x00, 0x00, 0x01, 0x00, 0x00, 0x00,
  0x20, 0x00, 0x00, 0x00, 0x4a, 0xf0, 0xff, 0xff, 0x00, 0x00, 0x00, 0x01,
  0x10, 0x00, 0x00, 0x00, 0x10, 0x00, 0x00, 0x00, 0x1e, 0x00, 0x00, 0x00,
  0x88, 0x00, 0x00, 0x00, 0xa8, 0xef, 0xff, 0xff, 0x7b, 0x00, 0x00, 0x00,
  0x6a, 0x61, 0x78, 0x32, 0x74, 0x66, 0x5f, 0x70, 0x6f, 0x6c, 0x69, 0x63,
  0x79, 0x5f, 0x66, 0x6e, 0x5f, 0x2f, 0x4d, 0x4c, 0x50, 0x2f, 0x68, 0x69,
  0x64, 0x64, 0x65, 0x6e, 0x5f, 0x33, 0x2f, 0x4d, 0x61, 0x74, 0x4d, 0x75,
  0x6c, 0x3b, 0x6a, 0x61, 0x78, 0x32, 0x74, 0x66, 0x5f, 0x70, 0x6f, 0x6c,
  0x69, 0x63, 0x79, 0x5f, 0x66, 0x6e, 0x5f, 0x2f, 0x4d, 0x4c, 0x50, 0x2f,
  0x68, 0x69, 0x64, 0x64, 0x65, 0x6e, 0x5f, 0x33, 0x2f, 0x70, 0x6a, 0x69,
  0x74, 0x5f, 0x61, 0x64, 0x64, 0x5f, 0x2f, 0x41, 0x64, 0x64, 0x56, 0x32,
  0x3b, 0x6a, 0x61, 0x78, 0x32, 0x74, 0x66, 0x5f, 0x70, 0x6f, 0x6c, 0x69,
  0x63, 0x79, 0x5f, 0x66, 0x6e, 0x5f, 0x2f, 0x4d, 0x4c, 0x50, 0x2f, 0x68,
  0x69, 0x64, 0x64, 0x65, 0x6e, 0x5f, 0x33, 0x2f, 0x52, 0x65, 0x73, 0x68,
  0x61, 0x70, 0x65, 0x00, 0x02, 0x00, 0x00, 0x00, 0x01, 0x00, 0x00, 0x00,
  0x20, 0x00, 0x00, 0x00, 0xf2, 0xf0, 0xff, 0xff, 0x00, 0x00, 0x00, 0x01,
  0x10, 0x00, 0x00, 0x00, 0x10, 0x00, 0x00, 0x00, 0x1d, 0x00, 0x00, 0x00,
  0x34, 0x00, 0x00, 0x00, 0x50, 0xf0, 0xff, 0xff, 0x26, 0x00, 0x00, 0x00,
  0x6a, 0x61, 0x78, 0x32, 0x74, 0x66, 0x5f, 0x70, 0x6f, 0x6c, 0x69, 0x63,
  0x79, 0x5f, 0x66, 0x6e, 0x5f, 0x2f, 0x4d, 0x4c, 0x50, 0x2f, 0x70, 0x6a,
  0x69, 0x74, 0x5f, 0x73, 0x69, 0x6c, 0x75, 0x5f, 0x2f, 0x4d, 0x75, 0x6c,
  0x5f, 0x32, 0x00, 0x00, 0x02, 0x00, 0x00, 0x00, 0x01, 0x00, 0x00, 0x00,
  0x20, 0x00, 0x00, 0x00, 0x46, 0xf1, 0xff, 0xff, 0x00, 0x00, 0x00, 0x01,
  0x10, 0x00, 0x00, 0x00, 0x10, 0x00, 0x00, 0x00, 0x1c, 0x00, 0x00, 0x00,
  0xb0, 0x00, 0x00, 0x00, 0xa4, 0xf0, 0xff, 0xff, 0xa1, 0x00, 0x00, 0x00,
  0x6a, 0x61, 0x78, 0x32, 0x74, 0x66, 0x5f, 0x70, 0x6f, 0x6c, 0x69, 0x63,
  0x79, 0x5f, 0x66, 0x6e, 0x5f, 0x2f, 0x4d, 0x4c, 0x50, 0x2f, 0x70, 0x6a,
  0x69, 0x74, 0x5f, 0x73, 0x69, 0x6c, 0x75, 0x5f, 0x2f, 0x74, 0x72, 0x75,
  0x65, 0x64, 0x69, 0x76, 0x5f, 0x32, 0x3b, 0x6a, 0x61, 0x78, 0x32, 0x74,
  0x66, 0x5f, 0x70, 0x6f, 0x6c, 0x69, 0x63, 0x79, 0x5f, 0x66, 0x6e, 0x5f,
  0x2f, 0x4d, 0x4c, 0x50, 0x2f, 0x70, 0x6a, 0x69, 0x74, 0x5f, 0x73, 0x69,
  0x6c, 0x75, 0x5f, 0x2f, 0x4e, 0x65, 0x67, 0x5f, 0x32, 0x3b, 0x6a, 0x61,
  0x78, 0x32, 0x74, 0x66, 0x5f, 0x70, 0x6f, 0x6c, 0x69, 0x63, 0x79, 0x5f,
  0x66, 0x6e, 0x5f, 0x2f, 0x4d, 0x4c, 0x50, 0x2f, 0x70, 0x6a, 0x69, 0x74,
  0x5f, 0x73, 0x69, 0x6c, 0x75, 0x5f, 0x2f, 0x45, 0x78, 0x70, 0x5f, 0x32,
  0x3b, 0x6a, 0x61, 0x78, 0x32, 0x74, 0x66, 0x5f, 0x70, 0x6f, 0x6c, 0x69,
  0x63, 0x79, 0x5f, 0x66, 0x6e, 0x5f, 0x2f, 0x4d, 0x4c, 0x50, 0x2f, 0x70,
  0x6a, 0x69, 0x74, 0x5f, 0x73, 0x69, 0x6c, 0x75, 0x5f, 0x2f, 0x41, 0x64,
  0x64, 0x56, 0x32, 0x5f, 0x32, 0x00, 0x00, 0x00, 0x02, 0x00, 0x00, 0x00,
  0x01, 0x00, 0x00, 0x00, 0x20, 0x00, 0x00, 0x00, 0x16, 0xf2, 0xff, 0xff,
  0x00, 0x00, 0x00, 0x01, 0x10, 0x00, 0x00, 0x00, 0x10, 0x00, 0x00, 0x00,
  0x1b, 0x00, 0x00, 0x00, 0x88, 0x00, 0x00, 0x00, 0x74, 0xf1, 0xff, 0xff,
  0x7b, 0x00, 0x00, 0x00, 0x6a, 0x61, 0x78, 0x32, 0x74, 0x66, 0x5f, 0x70,
  0x6f, 0x6c, 0x69, 0x63, 0x79, 0x5f, 0x66, 0x6e, 0x5f, 0x2f, 0x4d, 0x4c,
  0x50, 0x2f, 0x68, 0x69, 0x64, 0x64, 0x65, 0x6e, 0x5f, 0x32, 0x2f, 0x4d,
  0x61, 0x74, 0x4d, 0x75, 0x6c, 0x3b, 0x6a, 0x61, 0x78, 0x32, 0x74, 0x66,
  0x5f, 0x70, 0x6f, 0x6c, 0x69, 0x63, 0x79, 0x5f, 0x66, 0x6e, 0x5f, 0x2f,
  0x4d, 0x4c, 0x50, 0x2f, 0x68, 0x69, 0x64, 0x64, 0x65, 0x6e, 0x5f, 0x32,
  0x2f, 0x70, 0x6a, 0x69, 0x74, 0x5f, 0x61, 0x64, 0x64, 0x5f, 0x2f, 0x41,
  0x64, 0x64, 0x56, 0x32, 0x3b, 0x6a, 0x61, 0x78, 0x32, 0x74, 0x66, 0x5f,
  0x70, 0x6f, 0x6c, 0x69, 0x63, 0x79, 0x5f, 0x66, 0x6e, 0x5f, 0x2f, 0x4d,
  0x4c, 0x50, 0x2f, 0x68, 0x69, 0x64, 0x64, 0x65, 0x6e, 0x5f, 0x32, 0x2f,
  0x52, 0x65, 0x73, 0x68, 0x61, 0x70, 0x65, 0x00, 0x02, 0x00, 0x00, 0x00,
  0x01, 0x00, 0x00, 0x00, 0x20, 0x00, 0x00, 0x00, 0xbe, 0xf2, 0xff, 0xff,
  0x00, 0x00, 0x00, 0x01, 0x10, 0x00, 0x00, 0x00, 0x10, 0x00, 0x00, 0x00,
  0x1a, 0x00, 0x00, 0x00, 0x34, 0x00, 0x00, 0x00, 0x1c, 0xf2, 0xff, 0xff,
  0x26, 0x00, 0x00, 0x00, 0x6a, 0x61, 0x78, 0x32, 0x74, 0x66, 0x5f, 0x70,
  0x6f, 0x6c, 0x69, 0x63, 0x79, 0x5f, 0x66, 0x6e, 0x5f, 0x2f, 0x4d, 0x4c,
  0x50, 0x2f, 0x70, 0x6a, 0x69, 0x74, 0x5f, 0x73, 0x69, 0x6c, 0x75, 0x5f,
  0x2f, 0x4d, 0x75, 0x6c, 0x5f, 0x31, 0x00, 0x00, 0x02, 0x00, 0x00, 0x00,
  0x01, 0x00, 0x00, 0x00, 0x20, 0x00, 0x00, 0x00, 0x12, 0xf3, 0xff, 0xff,
  0x00, 0x00, 0x00, 0x01, 0x10, 0x00, 0x00, 0x00, 0x10, 0x00, 0x00, 0x00,
  0x19, 0x00, 0x00, 0x00, 0xb0, 0x00, 0x00, 0x00, 0x70, 0xf2, 0xff, 0xff,
  0xa1, 0x00, 0x00, 0x00, 0x6a, 0x61, 0x78, 0x32, 0x74, 0x66, 0x5f, 0x70,
  0x6f, 0x6c, 0x69, 0x63, 0x79, 0x5f, 0x66, 0x6e, 0x5f, 0x2f, 0x4d, 0x4c,
  0x50, 0x2f, 0x70, 0x6a, 0x69, 0x74, 0x5f, 0x73, 0x69, 0x6c, 0x75, 0x5f,
  0x2f, 0x74, 0x72, 0x75, 0x65, 0x64, 0x69, 0x76, 0x5f, 0x31, 0x3b, 0x6a,
  0x61, 0x78, 0x32, 0x74, 0x66, 0x5f, 0x70, 0x6f, 0x6c, 0x69, 0x63, 0x79,
  0x5f, 0x66, 0x6e, 0x5f, 0x2f, 0x4d, 0x4c, 0x50, 0x2f, 0x70, 0x6a, 0x69,
  0x74, 0x5f, 0x73, 0x69, 0x6c, 0x75, 0x5f, 0x2f, 0x4e, 0x65, 0x67, 0x5f,
  0x31, 0x3b, 0x6a, 0x61, 0x78, 0x32, 0x74, 0x66, 0x5f, 0x70, 0x6f, 0x6c,
  0x69, 0x63, 0x79, 0x5f, 0x66, 0x6e, 0x5f, 0x2f, 0x4d, 0x4c, 0x50, 0x2f,
  0x70, 0x6a, 0x69, 0x74, 0x5f, 0x73, 0x69, 0x6c, 0x75, 0x5f, 0x2f, 0x45,
  0x78, 0x70, 0x5f, 0x31, 0x3b, 0x6a, 0x61, 0x78, 0x32, 0x74, 0x66, 0x5f,
  0x70, 0x6f, 0x6c, 0x69, 0x63, 0x79, 0x5f, 0x66, 0x6e, 0x5f, 0x2f, 0x4d,
  0x4c, 0x50, 0x2f, 0x70, 0x6a, 0x69, 0x74, 0x5f, 0x73, 0x69, 0x6c, 0x75,
  0x5f, 0x2f, 0x41, 0x64, 0x64, 0x56, 0x32, 0x5f, 0x31, 0x00, 0x00, 0x00,
  0x02, 0x00, 0x00, 0x00, 0x01, 0x00, 0x00, 0x00, 0x20, 0x00, 0x00, 0x00,
  0xe2, 0xf3, 0xff, 0xff, 0x00, 0x00, 0x00, 0x01, 0x10, 0x00, 0x00, 0x00,
  0x10, 0x00, 0x00, 0x00, 0x18, 0x00, 0x00, 0x00, 0x88, 0x00, 0x00, 0x00,
  0x40, 0xf3, 0xff, 0xff, 0x7b, 0x00, 0x00, 0x00, 0x6a, 0x61, 0x78, 0x32,
  0x74, 0x66, 0x5f, 0x70, 0x6f, 0x6c, 0x69, 0x63, 0x79, 0x5f, 0x66, 0x6e,
  0x5f, 0x2f, 0x4d, 0x4c, 0x50, 0x2f, 0x68, 0x69, 0x64, 0x64, 0x65, 0x6e,
  0x5f, 0x31, 0x2f, 0x4d, 0x61, 0x74, 0x4d, 0x75, 0x6c, 0x3b, 0x6a, 0x61,
  0x78, 0x32, 0x74, 0x66, 0x5f, 0x70, 0x6f, 0x6c, 0x69, 0x63, 0x79, 0x5f,
  0x66, 0x6e, 0x5f, 0x2f, 0x4d, 0x4c, 0x50, 0x2f, 0x68, 0x69, 0x64, 0x64,
  0x65, 0x6e, 0x5f, 0x31, 0x2f, 0x70, 0x6a, 0x69, 0x74, 0x5f, 0x61, 0x64,
  0x64, 0x5f, 0x2f, 0x41, 0x64, 0x64, 0x56, 0x32, 0x3b, 0x6a, 0x61, 0x78,
  0x32, 0x74, 0x66, 0x5f, 0x70, 0x6f, 0x6c, 0x69, 0x63, 0x79, 0x5f, 0x66,
  0x6e, 0x5f, 0x2f, 0x4d, 0x4c, 0x50, 0x2f, 0x68, 0x69, 0x64, 0x64, 0x65,
  0x6e, 0x5f, 0x31, 0x2f, 0x52, 0x65, 0x73, 0x68, 0x61, 0x70, 0x65, 0x00,
  0x02, 0x00, 0x00, 0x00, 0x01, 0x00, 0x00, 0x00, 0x20, 0x00, 0x00, 0x00,
  0x8a, 0xf4, 0xff, 0xff, 0x00, 0x00, 0x00, 0x01, 0x10, 0x00, 0x00, 0x00,
  0x10, 0x00, 0x00, 0x00, 0x17, 0x00, 0x00, 0x00, 0x34, 0x00, 0x00, 0x00,
  0xe8, 0xf3, 0xff, 0xff, 0x24, 0x00, 0x00, 0x00, 0x6a, 0x61, 0x78, 0x32,
  0x74, 0x66, 0x5f, 0x70, 0x6f, 0x6c, 0x69, 0x63, 0x79, 0x5f, 0x66, 0x6e,
  0x5f, 0x2f, 0x4d, 0x4c, 0x50, 0x2f, 0x70, 0x6a, 0x69, 0x74, 0x5f, 0x73,
  0x69, 0x6c, 0x75, 0x5f, 0x2f, 0x4d, 0x75, 0x6c, 0x00, 0x00, 0x00, 0x00,
  0x02, 0x00, 0x00, 0x00, 0x01, 0x00, 0x00, 0x00, 0x20, 0x00, 0x00, 0x00,
  0xde, 0xf4, 0xff, 0xff, 0x00, 0x00, 0x00, 0x01, 0x10, 0x00, 0x00, 0x00,
  0x10, 0x00, 0x00, 0x00, 0x16, 0x00, 0x00, 0x00, 0xa8, 0x00, 0x00, 0x00,
  0x3c, 0xf4, 0xff, 0xff, 0x99, 0x00, 0x00, 0x00, 0x6a, 0x61, 0x78, 0x32,
  0x74, 0x66, 0x5f, 0x70, 0x6f, 0x6c, 0x69, 0x63, 0x79, 0x5f, 0x66, 0x6e,
  0x5f, 0x2f, 0x4d, 0x4c, 0x50, 0x2f, 0x70, 0x6a, 0x69, 0x74, 0x5f, 0x73,
  0x69, 0x6c, 0x75, 0x5f, 0x2f, 0x74, 0x72, 0x75, 0x65, 0x64, 0x69, 0x76,
  0x3b, 0x6a, 0x61, 0x78, 0x32, 0x74, 0x66, 0x5f, 0x70, 0x6f, 0x6c, 0x69,
  0x63, 0x79, 0x5f, 0x66, 0x6e, 0x5f, 0x2f, 0x4d, 0x4c, 0x50, 0x2f, 0x70,
  0x6a, 0x69, 0x74, 0x5f, 0x73, 0x69, 0x6c, 0x75, 0x5f, 0x2f, 0x4e, 0x65,
  0x67, 0x3b, 0x6a, 0x61, 0x78, 0x32, 0x74, 0x66, 0x5f, 0x70, 0x6f, 0x6c,
  0x69, 0x63, 0x79, 0x5f, 0x66, 0x6e, 0x5f, 0x2f, 0x4d, 0x4c, 0x50, 0x2f,
  0x70, 0x6a, 0x69, 0x74, 0x5f, 0x73, 0x69, 0x6c, 0x75, 0x5f, 0x2f, 0x45,
  0x78, 0x70, 0x3b, 0x6a, 0x61, 0x78, 0x32, 0x74, 0x66, 0x5f, 0x70, 0x6f,
  0x6c, 0x69, 0x63, 0x79, 0x5f, 0x66, 0x6e, 0x5f, 0x2f, 0x4d, 0x4c, 0x50,
  0x2f, 0x70, 0x6a, 0x69, 0x74, 0x5f, 0x73, 0x69, 0x6c, 0x75, 0x5f, 0x2f,
  0x41, 0x64, 0x64, 0x56, 0x32, 0x00, 0x00, 0x00, 0x02, 0x00, 0x00, 0x00,
  0x01, 0x00, 0x00, 0x00, 0x20, 0x00, 0x00, 0x00, 0xa6, 0xf5, 0xff, 0xff,
  0x00, 0x00, 0x00, 0x01, 0x10, 0x00, 0x00, 0x00, 0x10, 0x00, 0x00, 0x00,
  0x15, 0x00, 0x00, 0x00, 0x88, 0x00, 0x00, 0x00, 0x04, 0xf5, 0xff, 0xff,
  0x7b, 0x00, 0x00, 0x00, 0x6a, 0x61, 0x78, 0x32, 0x74, 0x66, 0x5f, 0x70,
  0x6f, 0x6c, 0x69, 0x63, 0x79, 0x5f, 0x66, 0x6e, 0x5f, 0x2f, 0x4d, 0x4c,
  0x50, 0x2f, 0x68, 0x69, 0x64, 0x64, 0x65, 0x6e, 0x5f, 0x30, 0x2f, 0x4d,
  0x61, 0x74, 0x4d, 0x75, 0x6c, 0x3b, 0x6a, 0x61, 0x78, 0x32, 0x74, 0x66,
  0x5f, 0x70, 0x6f, 0x6c, 0x69, 0x63, 0x79, 0x5f, 0x66, 0x6e, 0x5f, 0x2f,
  0x4d, 0x4c, 0x50, 0x2f, 0x68, 0x69, 0x64, 0x64, 0x65, 0x6e, 0x5f, 0x30,
  0x2f, 0x70, 0x6a, 0x69, 0x74, 0x5f, 0x61, 0x64, 0x64, 0x5f, 0x2f, 0x41,
  0x64, 0x64, 0x56, 0x32, 0x3b, 0x6a, 0x61, 0x78, 0x32, 0x74, 0x66, 0x5f,
  0x70, 0x6f, 0x6c, 0x69, 0x63, 0x79, 0x5f, 0x66, 0x6e, 0x5f, 0x2f, 0x4d,
  0x4c, 0x50, 0x2f, 0x68, 0x69, 0x64, 0x64, 0x65, 0x6e, 0x5f, 0x30, 0x2f,
  0x52, 0x65, 0x73, 0x68, 0x61, 0x70, 0x65, 0x00, 0x02, 0x00, 0x00, 0x00,
  0x01, 0x00, 0x00, 0x00, 0x20, 0x00, 0x00, 0x00, 0x4e, 0xf6, 0xff, 0xff,
  0x00, 0x00, 0x00, 0x01, 0x10, 0x00, 0x00, 0x00, 0x10, 0x00, 0x00, 0x00,
  0x14, 0x00, 0x00, 0x00, 0x64, 0x00, 0x00, 0x00, 0xac, 0xf5, 0xff, 0xff,
  0x57, 0x00, 0x00, 0x00, 0x6a, 0x61, 0x78, 0x32, 0x74, 0x66, 0x5f, 0x70,
  0x6f, 0x6c, 0x69, 0x63, 0x79, 0x5f, 0x66, 0x6e, 0x5f, 0x2f, 0x70, 0x6a,
  0x69, 0x74, 0x5f, 0x74, 0x72, 0x75, 0x65, 0x5f, 0x64, 0x69, 0x76, 0x69,
  0x64, 0x65, 0x5f, 0x2f, 0x74, 0x72, 0x75, 0x65, 0x64, 0x69, 0x76, 0x3b,
  0x6a, 0x61, 0x78, 0x32, 0x74, 0x66, 0x5f, 0x70, 0x6f, 0x6c, 0x69, 0x63,
  0x79, 0x5f, 0x66, 0x6e, 0x5f, 0x2f, 0x70, 0x6a, 0x69, 0x74, 0x5f, 0x74,
  0x72, 0x75, 0x65, 0x5f, 0x64, 0x69, 0x76, 0x69, 0x64, 0x65, 0x5f, 0x2f,
  0x52, 0x65, 0x73, 0x68, 0x61, 0x70, 0x65, 0x00, 0x02, 0x00, 0x00, 0x00,
  0x01, 0x00, 0x00, 0x00, 0x0d, 0x00, 0x00, 0x00, 0xd2, 0xf6, 0xff, 0xff,
  0x00, 0x00, 0x00, 0x01, 0x10, 0x00, 0x00, 0x00, 0x10, 0x00, 0x00, 0x00,
  0x13, 0x00, 0x00, 0x00, 0x34, 0x00, 0x00, 0x00, 0x30, 0xf6, 0xff, 0xff,
  0x24, 0x00, 0x00, 0x00, 0x6a, 0x61, 0x78, 0x32, 0x74, 0x66, 0x5f, 0x70,
  0x6f, 0x6c, 0x69, 0x63, 0x79, 0x5f, 0x66, 0x6e, 0x5f, 0x2f, 0x70, 0x6a,
  0x69, 0x74, 0x5f, 0x73, 0x75, 0x62, 0x74, 0x72, 0x61, 0x63, 0x74, 0x5f,
  0x2f, 0x53, 0x75, 0x62, 0x00, 0x00, 0x00, 0x00, 0x02, 0x00, 0x00, 0x00,
  0x01, 0x00, 0x00, 0x00, 0x0d, 0x00, 0x00, 0x00, 0xb2, 0xf7, 0xff, 0xff,
  0x00, 0x00, 0x00, 0x01, 0x14, 0x00, 0x00, 0x00, 0xa8, 0x01, 0x00, 0x00,
  0x12, 0x00, 0x00, 0x00, 0x00, 0x00, 0x00, 0x09, 0xb4, 0x01, 0x00, 0x00,
  0x54, 0xfc, 0xff, 0xff, 0x08, 0x00, 0x00, 0x00, 0x0c, 0x01, 0x00, 0x00,
  0x20, 0x00, 0x00, 0x00, 0x00, 0x00, 0x00, 0x00, 0x00, 0x00, 0x00, 0x00,
  0x00, 0x00, 0x00, 0x00, 0x00, 0x00, 0x00, 0x00, 0x00, 0x00, 0x00, 0x00,
  0x00, 0x00, 0x00, 0x00, 0x00, 0x00, 0x00, 0x00, 0x00, 0x00, 0x00, 0x00,
  0x00, 0x00, 0x00, 0x00, 0x00, 0x00, 0x00, 0x00, 0x00, 0x00, 0x00, 0x00,
  0x00, 0x00, 0x00, 0x00, 0x00, 0x00, 0x00, 0x00, 0x00, 0x00, 0x00, 0x00,
  0x00, 0x00, 0x00, 0x00, 0x00, 0x00, 0x00, 0x00, 0x00, 0x00, 0x00, 0x00,
  0x00, 0x00, 0x00, 0x00, 0x00, 0x00, 0x00, 0x00, 0x00, 0x00, 0x00, 0x00,
  0x00, 0x00, 0x00, 0x00, 0x00, 0x00, 0x00, 0x00, 0x00, 0x00, 0x00, 0x00,
  0x00, 0x00, 0x00, 0x00, 0x00, 0x00, 0x00, 0x00, 0x00, 0x00, 0x00, 0x00,
  0x00, 0x00, 0x00, 0x00, 0x00, 0x00, 0x00, 0x00, 0x00, 0x00, 0x00, 0x00,
  0x00, 0x00, 0x00, 0x00, 0x00, 0x00, 0x00, 0x00, 0x00, 0x00, 0x00, 0x00,
  0x00, 0x00, 0x00, 0x00, 0x00, 0x00, 0x00, 0x00, 0x00, 0x00, 0x00, 0x00,
  0x00, 0x00, 0x00, 0x00, 0x00, 0x00, 0x00, 0x00, 0x00, 0x00, 0x00, 0x00,
  0x00, 0x00, 0x00, 0x00, 0x00, 0x00, 0x00, 0x00, 0x00, 0x00, 0x00, 0x00,
  0x00, 0x00, 0x00, 0x00, 0x00, 0x00, 0x00, 0x00, 0x00, 0x00, 0x00, 0x00,
  0x00, 0x00, 0x00, 0x00, 0x00, 0x00, 0x00, 0x00, 0x00, 0x00, 0x00, 0x00,
  0x00, 0x00, 0x00, 0x00, 0x00, 0x00, 0x00, 0x00, 0x00, 0x00, 0x00, 0x00,
  0x00, 0x00, 0x00, 0x00, 0x00, 0x00, 0x00, 0x00, 0x00, 0x00, 0x00, 0x00,
  0x00, 0x00, 0x00, 0x00, 0x00, 0x00, 0x00, 0x00, 0x00, 0x00, 0x00, 0x00,
  0x00, 0x00, 0x00, 0x00, 0x00, 0x00, 0x00, 0x00, 0x00, 0x00, 0x00, 0x00,
  0x00, 0x00, 0x00, 0x00, 0x00, 0x00, 0x00, 0x00, 0x00, 0x00, 0x00, 0x00,
  0x00, 0x00, 0x00, 0x00, 0x00, 0x00, 0x00, 0x00, 0x00, 0x00, 0x00, 0x00,
  0x20, 0x00, 0x00, 0x00, 0xf8, 0xa7, 0x30, 0x3b, 0xa4, 0x9f, 0x33, 0x3b,
  0xea, 0x3c, 0x31, 0x3b, 0xb5, 0x62, 0x23, 0x3b, 0x1b, 0x47, 0x26, 0x3b,
  0xde, 0x78, 0x2c, 0x3b, 0x6a, 0x95, 0x1f, 0x3b, 0x68, 0x31, 0x2d, 0x3b,
  0x52, 0xb1, 0x48, 0x3b, 0xdf, 0x74, 0x1e, 0x3b, 0x6e, 0x38, 0x33, 0x3b,
  0xba, 0x98, 0x26, 0x3b, 0xb9, 0xbe, 0x47, 0x3b, 0x49, 0xb8, 0x3a, 0x3b,
  0x27, 0x21, 0x34, 0x3b, 0x80, 0x28, 0x36, 0x3b, 0x15, 0x3b, 0x2d, 0x3b,
  0xfb, 0x3d, 0x4d, 0x3b, 0x09, 0x0f, 0x2c, 0x3b, 0x56, 0xd7, 0x1d, 0x3b,
  0xaf, 0xd2, 0x29, 0x3b, 0x83, 0x6c, 0x43, 0x3b, 0x5f, 0xeb, 0x18, 0x3b,
  0x8d, 0x2a, 0x13, 0x3b, 0x10, 0xcf, 0x39, 0x3b, 0xaf, 0x20, 0x24, 0x3b,
  0xd1, 0x63, 0x24, 0x3b, 0x99, 0xac, 0x1e, 0x3b, 0x4e, 0xae, 0x1e, 0x3b,
  0xa2, 0xf4, 0x36, 0x3b, 0xa5, 0x19, 0x2b, 0x3b, 0x2d, 0x54, 0x33, 0x3b,
  0x12, 0x00, 0x00, 0x00, 0x74, 0x66, 0x6c, 0x2e, 0x70, 0x73, 0x65, 0x75,
  0x64, 0x6f, 0x5f, 0x71, 0x63, 0x6f, 0x6e, 0x73, 0x74, 0x32, 0x00, 0x00,
  0x02, 0x00, 0x00, 0x00, 0x20, 0x00, 0x00, 0x00, 0x20, 0x00, 0x00, 0x00,
  0x8a, 0xf9, 0xff, 0xff, 0x00, 0x00, 0x00, 0x01, 0x14, 0x00, 0x00, 0x00,
  0xa4, 0x01, 0x00, 0x00, 0x11, 0x00, 0x00, 0x00, 0x00, 0x00, 0x00, 0x09,
  0xb0, 0x01, 0x00, 0x00, 0x2c, 0xfe, 0xff, 0xff, 0x08, 0x00, 0x00, 0x00,
  0x08, 0x01, 0x00, 0x00, 0x20, 0x00, 0x00, 0x00, 0x00, 0x00, 0x00, 0x00,
  0x00, 0x00, 0x00, 0x00, 0x00, 0x00, 0x00, 0x00, 0x00, 0x00, 0x00, 0x00,
  0x00, 0x00, 0x00, 0x00, 0x00, 0x00, 0x00, 0x00, 0x00, 0x00, 0x00, 0x00,
  0x00, 0x00, 0x00, 0x00, 0x00, 0x00, 0x00, 0x00, 0x00, 0x00, 0x00, 0x00,
  0x00, 0x00, 0x00, 0x00, 0x00, 0x00, 0x00, 0x00, 0x00, 0x00, 0x00, 0x00,
  0x00, 0x00, 0x00, 0x00, 0x00, 0x00, 0x00, 0x00, 0x00, 0x00, 0x00, 0x00,
  0x00, 0x00, 0x00, 0x00, 0x00, 0x00, 0x00, 0x00, 0x00, 0x00, 0x00, 0x00,
  0x00, 0x00, 0x00, 0x00, 0x00, 0x00, 0x00, 0x00, 0x00, 0x00, 0x00, 0x00,
  0x00, 0x00, 0x00, 0x00, 0x00, 0x00, 0x00, 0x00, 0x00, 0x00, 0x00, 0x00,
  0x00, 0x00, 0x00, 0x00, 0x00, 0x00, 0x00, 0x00, 0x00, 0x00, 0x00, 0x00,
  0x00, 0x00, 0x00, 0x00, 0x00, 0x00, 0x00, 0x00, 0x00, 0x00, 0x00, 0x00,
  0x00, 0x00, 0x00, 0x00, 0x00, 0x00, 0x00, 0x00, 0x00, 0x00, 0x00, 0x00,
  0x00, 0x00, 0x00, 0x00, 0x00, 0x00, 0x00, 0x00, 0x00, 0x00, 0x00, 0x00,
  0x00, 0x00, 0x00, 0x00, 0x00, 0x00, 0x00, 0x00, 0x00, 0x00, 0x00, 0x00,
  0x00, 0x00, 0x00, 0x00, 0x00, 0x00, 0x00, 0x00, 0x00, 0x00, 0x00, 0x00,
  0x00, 0x00, 0x00, 0x00, 0x00, 0x00, 0x00, 0x00, 0x00, 0x00, 0x00, 0x00,
  0x00, 0x00, 0x00, 0x00, 0x00, 0x00, 0x00, 0x00, 0x00, 0x00, 0x00, 0x00,
  0x00, 0x00, 0x00, 0x00, 0x00, 0x00, 0x00, 0x00, 0x00, 0x00, 0x00, 0x00,
  0x00, 0x00, 0x00, 0x00, 0x00, 0x00, 0x00, 0x00, 0x00, 0x00, 0x00, 0x00,
  0x00, 0x00, 0x00, 0x00, 0x00, 0x00, 0x00, 0x00, 0x00, 0x00, 0x00, 0x00,
  0x00, 0x00, 0x00, 0x00, 0x00, 0x00, 0x00, 0x00, 0x00, 0x00, 0x00, 0x00,
  0x00, 0x00, 0x00, 0x00, 0x00, 0x00, 0x00, 0x00, 0x00, 0x00, 0x00, 0x00,
  0x20, 0x00, 0x00, 0x00, 0xae, 0x81, 0x35, 0x3b, 0xa9, 0xc9, 0x41, 0x3b,
  0xfc, 0xc5, 0x1f, 0x3b, 0x3e, 0xce, 0x32, 0x3b, 0xcf, 0x50, 0x25, 0x3b,
  0x70, 0xe0, 0x3a, 0x3b, 0xd7, 0xe8, 0x2d, 0x3b, 0x80, 0xfc, 0x24, 0x3b,
  0xed, 0x48, 0x3e, 0x3b, 0x18, 0xf9, 0x4d, 0x3b, 0x8a, 0xfe, 0x66, 0x3b,
  0x51, 0x11, 0x20, 0x3b, 0xd8, 0xb0, 0x28, 0x3b, 0x67, 0x0e, 0x24, 0x3b,
  0x4b, 0xf8, 0x1c, 0x3b, 0x33, 0xdd, 0x49, 0x3b, 0xf5, 0x33, 0x2d, 0x3b,
  0xf1, 0x55, 0x4e, 0x3b, 0x2b, 0x73, 0x31, 0x3b, 0x69, 0x87, 0x27, 0x3b,
  0x45, 0x52, 0x2a, 0x3b, 0xa2, 0x7b, 0x35, 0x3b, 0x08, 0xe5, 0x25, 0x3b,
  0xc9, 0x5f, 0x1a, 0x3b, 0xae, 0xdb, 0x21, 0x3b, 0x6d, 0xa5, 0x18, 0x3b,
  0xc2, 0x49, 0x3b, 0x3b, 0x81, 0xfc, 0x16, 0x3b, 0x57, 0x3b, 0x39, 0x3b,
  0x20, 0xac, 0x3b, 0x3b, 0xd2, 0xf1, 0x38, 0x3b, 0xa5, 0x82, 0x3a, 0x3b,
  0x12, 0x00, 0x00, 0x00, 0x74, 0x66, 0x6c, 0x2e, 0x70, 0x73, 0x65, 0x75,
  0x64, 0x6f, 0x5f, 0x71, 0x63, 0x6f, 0x6e, 0x73, 0x74, 0x31, 0x00, 0x00,
  0x02, 0x00, 0x00, 0x00, 0x20, 0x00, 0x00, 0x00, 0x20, 0x00, 0x00, 0x00,
  0x5e, 0xfb, 0xff, 0xff, 0x00, 0x00, 0x00, 0x01, 0x20, 0x00, 0x00, 0x00,
  0xb4, 0x01, 0x00, 0x00, 0x10, 0x00, 0x00, 0x00, 0x00, 0x00, 0x00, 0x09,
  0xc0, 0x01, 0x00, 0x00, 0x0c, 0x00, 0x0c, 0x00, 0x00, 0x00, 0x00, 0x00,
  0x08, 0x00, 0x04, 0x00, 0x0c, 0x00, 0x00, 0x00, 0x08, 0x00, 0x00, 0x00,
  0x0c, 0x01, 0x00, 0x00, 0x20, 0x00, 0x00, 0x00, 0x00, 0x00, 0x00, 0x00,
  0x00, 0x00, 0x00, 0x00, 0x00, 0x00, 0x00, 0x00, 0x00, 0x00, 0x00, 0x00,
  0x00, 0x00, 0x00, 0x00, 0x00, 0x00, 0x00, 0x00, 0x00, 0x00, 0x00, 0x00,
  0x00, 0x00, 0x00, 0x00, 0x00, 0x00, 0x00, 0x00, 0x00, 0x00, 0x00, 0x00,
  0x00, 0x00, 0x00, 0x00, 0x00, 0x00, 0x00, 0x00, 0x00, 0x00, 0x00, 0x00,
  0x00, 0x00, 0x00, 0x00, 0x00, 0x00, 0x00, 0x00, 0x00, 0x00, 0x00, 0x00,
  0x00, 0x00, 0x00, 0x00, 0x00, 0x00, 0x00, 0x00, 0x00, 0x00, 0x00, 0x00,
  0x00, 0x00, 0x00, 0x00, 0x00, 0x00, 0x00, 0x00, 0x00, 0x00, 0x00, 0x00,
  0x00, 0x00, 0x00, 0x00, 0x00, 0x00, 0x00, 0x00, 0x00, 0x00, 0x00, 0x00,
  0x00, 0x00, 0x00, 0x00, 0x00, 0x00, 0x00, 0x00, 0x00, 0x00, 0x00, 0x00,
  0x00, 0x00, 0x00, 0x00, 0x00, 0x00, 0x00, 0x00, 0x00, 0x00, 0x00, 0x00,
  0x00, 0x00, 0x00, 0x00, 0x00, 0x00, 0x00, 0x00, 0x00, 0x00, 0x00, 0x00,
  0x00, 0x00, 0x00, 0x00, 0x00, 0x00, 0x00, 0x00, 0x00, 0x00, 0x00, 0x00,
  0x00, 0x00, 0x00, 0x00, 0x00, 0x00, 0x00, 0x00, 0x00, 0x00, 0x00, 0x00,
  0x00, 0x00, 0x00, 0x00, 0x00, 0x00, 0x00, 0x00, 0x00, 0x00, 0x00, 0x00,
  0x00, 0x00, 0x00, 0x00, 0x00, 0x00, 0x00, 0x00, 0x00, 0x00, 0x00, 0x00,
  0x00, 0x00, 0x00, 0x00, 0x00, 0x00, 0x00, 0x00, 0x00, 0x00, 0x00, 0x00,
  0x00, 0x00, 0x00, 0x00, 0x00, 0x00, 0x00, 0x00, 0x00, 0x00, 0x00, 0x00,
  0x00, 0x00, 0x00, 0x00, 0x00, 0x00, 0x00, 0x00, 0x00, 0x00, 0x00, 0x00,
  0x00, 0x00, 0x00, 0x00, 0x00, 0x00, 0x00, 0x00, 0x00, 0x00, 0x00, 0x00,
  0x00, 0x00, 0x00, 0x00, 0x00, 0x00, 0x00, 0x00, 0x00, 0x00, 0x00, 0x00,
  0x00, 0x00, 0x00, 0x00, 0x00, 0x00, 0x00, 0x00, 0x00, 0x00, 0x00, 0x00,
  0x00, 0x00, 0x00, 0x00, 0x20, 0x00, 0x00, 0x00, 0x5d, 0x42, 0x33, 0x3b,
  0x33, 0xfa, 0x31, 0x3b, 0xdd, 0x4d, 0x25, 0x3b, 0xad, 0x55, 0x45, 0x3b,
  0x0e, 0x41, 0x42, 0x3b, 0x27, 0x0f, 0x3d, 0x3b, 0x29, 0x71, 0x4b, 0x3b,
  0x75, 0x7b, 0x2c, 0x3b, 0x58, 0x0a, 0x2f, 0x3b, 0xe7, 0x6f, 0x23, 0x3b,
  0x11, 0x18, 0x4e, 0x3b, 0x3d, 0x04, 0x1a, 0x3b, 0xa5, 0x64, 0x25, 0x3b,
  0x16, 0x73, 0x2a, 0x3b, 0xa7, 0x07, 0x36, 0x3b, 0x9d, 0xd5, 0x35, 0x3b,
  0x15, 0xd7, 0x21, 0x3b, 0x82, 0x25, 0x0b, 0x3b, 0x66, 0x57, 0x4b, 0x3b,
  0x31, 0xba, 0x36, 0x3b, 0x35, 0x17, 0x43, 0x3b, 0x6e, 0xa8, 0x33, 0x3b,
  0x82, 0x4d, 0x09, 0x3b, 0x1a, 0xcf, 0x47, 0x3b, 0x62, 0x4c, 0x24, 0x3b,
  0xe7, 0xe0, 0x32, 0x3b, 0x2d, 0x5a, 0x2a, 0x3b, 0x78, 0xa6, 0x35, 0x3b,
  0xb7, 0xf5, 0x3d, 0x3b, 0xe8, 0xd7, 0x21, 0x3b, 0x31, 0x74, 0x25, 0x3b,
  0x03, 0xd5, 0x24, 0x3b, 0x11, 0x00, 0x00, 0x00, 0x74, 0x66, 0x6c, 0x2e,
  0x70, 0x73, 0x65, 0x75, 0x64, 0x6f, 0x5f, 0x71, 0x63, 0x6f, 0x6e, 0x73,
  0x74, 0x00, 0x00, 0x00, 0x02, 0x00, 0x00, 0x00, 0x20, 0x00, 0x00, 0x00,
  0x20, 0x00, 0x00, 0x00, 0xb6, 0xfc, 0xff, 0xff, 0x00, 0x00, 0x00, 0x01,
  0x10, 0x00, 0x00, 0x00, 0x10, 0x00, 0x00, 0x00, 0x0f, 0x00, 0x00, 0x00,
  0x20, 0x00, 0x00, 0x00, 0x14, 0xfc, 0xff, 0xff, 0x10, 0x00, 0x00, 0x00,
  0x61, 0x72, 0x69, 0x74, 0x68, 0x2e, 0x63, 0x6f, 0x6e, 0x73, 0x74, 0x61,
  0x6e, 0x74, 0x31, 0x33, 0x00, 0x00, 0x00, 0x00, 0x02, 0x00, 0x00, 0x00,
  0x08, 0x00, 0x00, 0x00, 0x20, 0x00, 0x00, 0x00, 0xf6, 0xfc, 0xff, 0xff,
  0x00, 0x00, 0x00, 0x01, 0x10, 0x00, 0x00, 0x00, 0x10, 0x00, 0x00, 0x00,
  0x0e, 0x00, 0x00, 0x00, 0x20, 0x00, 0x00, 0x00, 0x54, 0xfc, 0xff, 0xff,
  0x10, 0x00, 0x00, 0x00, 0x61, 0x72, 0x69, 0x74, 0x68, 0x2e, 0x63, 0x6f,
  0x6e, 0x73, 0x74, 0x61, 0x6e, 0x74, 0x31, 0x32, 0x00, 0x00, 0x00, 0x00,
  0x02, 0x00, 0x00, 0x00, 0x01, 0x00, 0x00, 0x00, 0x0d, 0x00, 0x00, 0x00,
  0x36, 0xfd, 0xff, 0xff, 0x00, 0x00, 0x00, 0x01, 0x10, 0x00, 0x00, 0x00,
  0x10, 0x00, 0x00, 0x00, 0x0d, 0x00, 0x00, 0x00, 0x20, 0x00, 0x00, 0x00,
  0x94, 0xfc, 0xff, 0xff, 0x10, 0x00, 0x00, 0x00, 0x61, 0x72, 0x69, 0x74,
  0x68, 0x2e, 0x63, 0x6f, 0x6e, 0x73, 0x74, 0x61, 0x6e, 0x74, 0x31, 0x31,
  0x00, 0x00, 0x00, 0x00, 0x01, 0x00, 0x00, 0x00, 0x20, 0x00, 0x00, 0x00,
  0x72, 0xfd, 0xff, 0xff, 0x00, 0x00, 0x00, 0x01, 0x10, 0x00, 0x00, 0x00,
  0x10, 0x00, 0x00, 0x00, 0x0c, 0x00, 0x00, 0x00, 0x20, 0x00, 0x00, 0x00,
  0xd0, 0xfc, 0xff, 0xff, 0x10, 0x00, 0x00, 0x00, 0x61, 0x72, 0x69, 0x74,
  0x68, 0x2e, 0x63, 0x6f, 0x6e, 0x73, 0x74, 0x61, 0x6e, 0x74, 0x31, 0x30,
  0x00, 0x00, 0x00, 0x00, 0x01, 0x00, 0x00, 0x00, 0x20, 0x00, 0x00, 0x00,
  0xae, 0xfd, 0xff, 0xff, 0x00, 0x00, 0x00, 0x01, 0x10, 0x00, 0x00, 0x00,
  0x10, 0x00, 0x00, 0x00, 0x0b, 0x00, 0x00, 0x00, 0x1c, 0x00, 0x00, 0x00,
  0x0c, 0xfd, 0xff, 0xff, 0x0f, 0x00, 0x00, 0x00, 0x61, 0x72, 0x69, 0x74,
  0x68, 0x2e, 0x63, 0x6f, 0x6e, 0x73, 0x74, 0x61, 0x6e, 0x74, 0x39, 0x00,
  0x01, 0x00, 0x00, 0x00, 0x20, 0x00, 0x00, 0x00, 0xe6, 0xfd, 0xff, 0xff,
  0x00, 0x00, 0x00, 0x01, 0x10, 0x00, 0x00, 0x00, 0x10, 0x00, 0x00, 0x00,
  0x0a, 0x00, 0x00, 0x00, 0x1c, 0x00, 0x00, 0x00, 0x44, 0xfd, 0xff, 0xff,
  0x0f, 0x00, 0x00, 0x00, 0x61, 0x72, 0x69, 0x74, 0x68, 0x2e, 0x63, 0x6f,
  0x6e, 0x73, 0x74, 0x61, 0x6e, 0x74, 0x38, 0x00, 0x01, 0x00, 0x00, 0x00,
  0x20, 0x00, 0x00, 0x00, 0x1e, 0xfe, 0xff, 0xff, 0x00, 0x00, 0x00, 0x01,
  0x10, 0x00, 0x00, 0x00, 0x10, 0x00, 0x00, 0x00, 0x09, 0x00, 0x00, 0x00,
  0x1c, 0x00, 0x00, 0x00, 0x7c, 0xfd, 0xff, 0xff, 0x0f, 0x00, 0x00, 0x00,
  0x61, 0x72, 0x69, 0x74, 0x68, 0x2e, 0x63, 0x6f, 0x6e, 0x73, 0x74, 0x61,
  0x6e, 0x74, 0x37, 0x00, 0x01, 0x00, 0x00, 0x00, 0x08, 0x00, 0x00, 0x00,
  0x56, 0xfe, 0xff, 0xff, 0x00, 0x00, 0x00, 0x01, 0x10, 0x00, 0x00, 0x00,
  0x10, 0x00, 0x00, 0x00, 0x08, 0x00, 0x00, 0x00, 0x1c, 0x00, 0x00, 0x00,
  0xb4, 0xfd, 0xff, 0xff, 0x0f, 0x00, 0x00, 0x00, 0x61, 0x72, 0x69, 0x74,
  0x68, 0x2e, 0x63, 0x6f, 0x6e, 0x73, 0x74, 0x61, 0x6e, 0x74, 0x36, 0x00,
  0x02, 0x00, 0x00, 0x00, 0x20, 0x00, 0x00, 0x00, 0x0d, 0x00, 0x00, 0x00,
  0x92, 0xfe, 0xff, 0xff, 0x00, 0x00, 0x00, 0x01, 0x10, 0x00, 0x00, 0x00,
  0x10, 0x00, 0x00, 0x00, 0x07, 0x00, 0x00, 0x00, 0x1c, 0x00, 0x00, 0x00,
  0xf0, 0xfd, 0xff, 0xff, 0x0f, 0x00, 0x00, 0x00, 0x61, 0x72, 0x69, 0x74,
  0x68, 0x2e, 0x63, 0x6f, 0x6e, 0x73, 0x74, 0x61, 0x6e, 0x74, 0x35, 0x00,
  0x02, 0x00, 0x00, 0x00, 0x01, 0x00, 0x00, 0x00, 0x04, 0x00, 0x00, 0x00,
  0xce, 0xfe, 0xff, 0xff, 0x00, 0x00, 0x00, 0x01, 0x10, 0x00, 0x00, 0x00,
  0x10, 0x00, 0x00, 0x00, 0x06, 0x00, 0x00, 0x00, 0x1c, 0x00, 0x00, 0x00,
  0x2c, 0xfe, 0xff, 0xff, 0x0f, 0x00, 0x00, 0x00, 0x61, 0x72, 0x69, 0x74,
  0x68, 0x2e, 0x63, 0x6f, 0x6e, 0x73, 0x74, 0x61, 0x6e, 0x74, 0x34, 0x00,
  0x00, 0x00, 0x00, 0x00, 0x8e, 0xff, 0xff, 0xff, 0x00, 0x00, 0x00, 0x01,
  0x14, 0x00, 0x00, 0x00, 0x14, 0x00, 0x00, 0x00, 0x05, 0x00, 0x00, 0x00,
  0x00, 0x00, 0x00, 0x02, 0x1c, 0x00, 0x00, 0x00, 0x64, 0xfe, 0xff, 0xff,
  0x0f, 0x00, 0x00, 0x00, 0x61, 0x72, 0x69, 0x74, 0x68, 0x2e, 0x63, 0x6f,
  0x6e, 0x73, 0x74, 0x61, 0x6e, 0x74, 0x33, 0x00, 0x01, 0x00, 0x00, 0x00,
  0x02, 0x00, 0x00, 0x00, 0x3e, 0xff, 0xff, 0xff, 0x00, 0x00, 0x00, 0x01,
  0x10, 0x00, 0x00, 0x00, 0x10, 0x00, 0x00, 0x00, 0x04, 0x00, 0x00, 0x00,
  0x1c, 0x00, 0x00, 0x00, 0x9c, 0xfe, 0xff, 0xff, 0x0f, 0x00, 0x00, 0x00,
  0x61, 0x72, 0x69, 0x74, 0x68, 0x2e, 0x63, 0x6f, 0x6e, 0x73, 0x74, 0x61,
  0x6e, 0x74, 0x32, 0x00, 0x00, 0x00, 0x00, 0x00, 0x00, 0x00, 0x16, 0x00,
  0x1c, 0x00, 0x18, 0x00, 0x17, 0x00, 0x10, 0x00, 0x0c, 0x00, 0x08, 0x00,
  0x00, 0x00, 0x00, 0x00, 0x00, 0x00, 0x07, 0x00, 0x16, 0x00, 0x00, 0x00,
  0x00, 0x00, 0x00, 0x01, 0x14, 0x00, 0x00, 0x00, 0x14, 0x00, 0x00, 0x00,
  0x03, 0x00, 0x00, 0x00, 0x00, 0x00, 0x00, 0x02, 0x1c, 0x00, 0x00, 0x00,
  0xec, 0xfe, 0xff, 0xff, 0x0f, 0x00, 0x00, 0x00, 0x61, 0x72, 0x69, 0x74,
  0x68, 0x2e, 0x63, 0x6f, 0x6e, 0x73, 0x74, 0x61, 0x6e, 0x74, 0x31, 0x00,
  0x00, 0x00, 0x00, 0x00, 0xc2, 0xff, 0xff, 0xff, 0x00, 0x00, 0x00, 0x01,
  0x10, 0x00, 0x00, 0x00, 0x10, 0x00, 0x00, 0x00, 0x02, 0x00, 0x00, 0x00,
  0x1c, 0x00, 0x00, 0x00, 0x20, 0xff, 0xff, 0xff, 0x0e, 0x00, 0x00, 0x00,
  0x61, 0x72, 0x69, 0x74, 0x68, 0x2e, 0x63, 0x6f, 0x6e, 0x73, 0x74, 0x61,
  0x6e, 0x74, 0x00, 0x00, 0x02, 0x00, 0x00, 0x00, 0x01, 0x00, 0x00, 0x00,
  0x0d, 0x00, 0x00, 0x00, 0x00, 0x00, 0x16, 0x00, 0x18, 0x00, 0x14, 0x00,
  0x00, 0x00, 0x10, 0x00, 0x0c, 0x00, 0x08, 0x00, 0x00, 0x00, 0x00, 0x00,
  0x00, 0x00, 0x07, 0x00, 0x16, 0x00, 0x00, 0x00, 0x00, 0x00, 0x00, 0x01,
  0x10, 0x00, 0x00, 0x00, 0x10, 0x00, 0x00, 0x00, 0x01, 0x00, 0x00, 0x00,
  0x18, 0x00, 0x00, 0x00, 0x74, 0xff, 0xff, 0xff, 0x0b, 0x00, 0x00, 0x00,
  0x6f, 0x62, 0x73, 0x65, 0x72, 0x76, 0x61, 0x74, 0x69, 0x6f, 0x6e, 0x00,
  0x02, 0x00, 0x00, 0x00, 0x01, 0x00, 0x00, 0x00, 0x0d, 0x00, 0x00, 0x00,
  0x0e, 0x00, 0x00, 0x00, 0xec, 0x00, 0x00, 0x00, 0xd0, 0x00, 0x00, 0x00,
  0xbc, 0x00, 0x00, 0x00, 0xa0, 0x00, 0x00, 0x00, 0x90, 0x00, 0x00, 0x00,
  0x80, 0x00, 0x00, 0x00, 0x70, 0x00, 0x00, 0x00, 0x60, 0x00, 0x00, 0x00,
  0x50, 0x00, 0x00, 0x00, 0x48, 0x00, 0x00, 0x00, 0x34, 0x00, 0x00, 0x00,
  0x24, 0x00, 0x00, 0x00, 0x14, 0x00, 0x00, 0x00, 0x04, 0x00, 0x00, 0x00,
  0x58, 0xff, 0xff, 0xff, 0x1c, 0x00, 0x00, 0x00, 0x00, 0x00, 0x00, 0x1c,
  0x64, 0xff, 0xff, 0xff, 0x40, 0x00, 0x00, 0x00, 0x00, 0x00, 0x00, 0x40,
  0x70, 0xff, 0xff, 0xff, 0x48, 0x00, 0x00, 0x00, 0x00, 0x00, 0x00, 0x48,
  0x7c, 0xff, 0xff, 0xff, 0x49, 0x00, 0x00, 0x00, 0x00, 0x00, 0x00, 0x49,
  0x04, 0x00, 0x04, 0x00, 0x04, 0x00, 0x00, 0x00, 0x90, 0xff, 0xff, 0xff,
  0x2f, 0x00, 0x00, 0x00, 0x00, 0x00, 0x00, 0x2f, 0x9c, 0xff, 0xff, 0xff,
  0x3b, 0x00, 0x00, 0x00, 0x00, 0x00, 0x00, 0x3b, 0xa8, 0xff, 0xff, 0xff,
  0x65, 0x00, 0x00, 0x00, 0x00, 0x00, 0x00, 0x65, 0xb4, 0xff, 0xff, 0xff,
  0x13, 0x00, 0x00, 0x00, 0x00, 0x00, 0x00, 0x13, 0xc0, 0xff, 0xff, 0xff,
  0x66, 0x00, 0x00, 0x00, 0x00, 0x00, 0x00, 0x66, 0xcc, 0xff, 0xff, 0xff,
  0x0e, 0x00, 0x00, 0x00, 0x00, 0x00, 0x00, 0x0e, 0x0c, 0x00, 0x10, 0x00,
  0x0f, 0x00, 0x00, 0x00, 0x08, 0x00, 0x04, 0x00, 0x0c, 0x00, 0x00, 0x00,
  0x09, 0x00, 0x00, 0x00, 0x0c, 0x00, 0x00, 0x00, 0x00, 0x00, 0x00, 0x09,
  0xf4, 0xff, 0xff, 0xff, 0x12, 0x00, 0x00, 0x00, 0x00, 0x00, 0x00, 0x12,
  0x0c, 0x00, 0x0c, 0x00, 0x0b, 0x00, 0x00, 0x00, 0x00, 0x00, 0x04, 0x00,
  0x0c, 0x00, 0x00, 0x00, 0x29, 0x00, 0x00, 0x00, 0x00, 0x00, 0x00, 0x29
};
unsigned int tflitemodels_len = 15072;
